{
  "version": "1.0",
  "truncation": {
    "direction": "Right",
    "max_length": 75,
    "strategy": "LongestFirst",
    "stride": 0
  },
  "padding": {
    "strategy": "BatchLongest",
    "direction": "Right",
    "pad_to_multiple_of": null,
    "pad_id": 0,
    "pad_type_id": 0,
    "pad_token": "[PAD]"
  },
  "added_tokens": [
    {
      "id": 0,
      "content": "[PAD]",
      "single_word": false,
      "lstrip": false,
      "rstrip": false,
      "normalized": false,
      "special": true
    },
    {
      "id": 1,
      "content": "[UNK]",
      "single_word": false,
      "lstrip": false,
      "rstrip": false,
      "normalized": false,
      "special": true
    },
    {
      "id": 2,
      "content": "[CLS]",
      "single_word": false,
      "lstrip": false,
      "rstrip": false,
      "normalized": false,
      "special": true
    },
    {
      "id": 3,
      "content": "[SEP]",
      "single_word": false,
      "lstrip": false,
      "rstrip": false,
      "normalized": false,
      "special": true
    },
    {
      "id": 4,
      "content": "[MASK]",
      "single_word": false,
      "lstrip": false,
      "rstrip": false,
      "normalized": false,
      "special": true
    }
  ],
  "normalizer": {
    "type": "BertNormalizer",
    "clean_text": true,
    "handle_chinese_chars": true,
    "strip_accents": null,
    "lowercase": true
  },
  "pre_tokenizer": {
    "type": "BertPreTokenizer"
  },
  "post_processor": {
    "type": "TemplateProcessing",
    "single": [
      {
        "SpecialToken": {
          "id": "[CLS]",
          "type_id": 0
        }
      },
      {
        "Sequence": {
          "id": "A",
          "type_id": 0
        }
      },
      {
        "SpecialToken": {
          "id": "[SEP]",
          "type_id": 0
        }
      }
    ],
    "pair": [
      {
        "SpecialToken": {
          "id": "[CLS]",
          "type_id": 0
        }
      },
      {
        "Sequence": {
          "id": "A",
          "type_id": 0
        }
      },
      {
        "SpecialToken": {
          "id": "[SEP]",
          "type_id": 0
        }
      },
      {
        "Sequence": {
          "id": "B",
          "type_id": 1
        }
      },
      {
        "SpecialToken": {
          "id": "[SEP]",
          "type_id": 1
        }
      }
    ],
    "special_tokens": {
      "[CLS]": {
        "id": "[CLS]",
        "ids": [
          2
        ],
        "tokens": [
          "[CLS]"
        ]
      },
      "[SEP]": {
        "id": "[SEP]",
        "ids": [
          3
        ],
        "tokens": [
          "[SEP]"
        ]
      }
    }
  },
  "decoder": {
    "type": "WordPiece",
    "prefix": "##",
    "cleanup": true
  },
  "model": {
    "type": "WordPiece",
    "unk_token": "[UNK]",
    "continuing_subword_prefix": "##",
    "max_input_chars_per_word": 100,
    "vocab": {
      "[PAD]": 0,
      "[UNK]": 1,
      "[CLS]": 2,
      "[SEP]": 3,
      "[MASK]": 4,
      "!": 5,
      "\"": 6,
      "#": 7,
      "$": 8,
      "%": 9,
      "&": 10,
      "'": 11,
      "(": 12,
      ")": 13,
      "*": 14,
      "+": 15,
      ",": 16,
      "-": 17,
      ".": 18,
      "/": 19,
      "0": 20,
      "1": 21,
      "2": 22,
      "3": 23,
      "4": 24,
      "5": 25,
      "6": 26,
      "7": 27,
      "8": 28,
      "9": 29,
      ":": 30,
      ";": 31,
      "<": 32,
      "=": 33,
      ">": 34,
      "?": 35,
      "@": 36,
      "A": 37,
      "B": 38,
      "C": 39,
      "D": 40,
      "E": 41,
      "F": 42,
      "G": 43,
      "H": 44,
      "I": 45,
      "J": 46,
      "K": 47,
      "L": 48,
      "M": 49,
      "N": 50,
      "O": 51,
      "P": 52,
      "Q": 53,
      "R": 54,
      "S": 55,
      "T": 56,
      "U": 57,
      "V": 58,
      "W": 59,
      "X": 60,
      "Y": 61,
      "Z": 62,
      "[": 63,
      "\\": 64,
      "]": 65,
      "^": 66,
      "_": 67,
      "`": 68,
      "a": 69,
      "b": 70,
      "c": 71,
      "d": 72,
      "e": 73,
      "f": 74,
      "g": 75,
      "h": 76,
      "i": 77,
      "j": 78,
      "k": 79,
      "l": 80,
      "m": 81,
      "n": 82,
      "o": 83,
      "p": 84,
      "q": 85,
      "r": 86,
      "s": 87,
      "t": 88,
      "u": 89,
      "v": 90,
      "w": 91,
      "x": 92,
      "y": 93,
      "z": 94,
      "{": 95,
      "|": 96,
      "}": 97,
      "~": 98,
      "¡": 99,
      "¢": 100,
      "£": 101,
      "¥": 102,
      "¦": 103,
      "§": 104,
      "¨": 105,
      "©": 106,
      "ª": 107,
      "«": 108,
      "¬": 109,
      "®": 110,
      "¯": 111,
      "°": 112,
      "±": 113,
      "²": 114,
      "³": 115,
      "´": 116,
      "µ": 117,
      "¶": 118,
      "·": 119,
      "¸": 120,
      "¹": 121,
      "º": 122,
      "»": 123,
      "¼": 124,
      "½": 125,
      "¾": 126,
      "¿": 127,
      "À": 128,
      "Á": 129,
      "Â": 130,
      "Ã": 131,
      "Ä": 132,
      "Å": 133,
      "Æ": 134,
      "Ç": 135,
      "È": 136,
      "É": 137,
      "Ê": 138,
      "Ë": 139,
      "Ì": 140,
      "Í": 141,
      "Î": 142,
      "Ï": 143,
      "Ð": 144,
      "Ñ": 145,
      "Ó": 146,
      "Ô": 147,
      "Ö": 148,
      "×": 149,
      "Ø": 150,
      "Ú": 151,
      "Û": 152,
      "Ü": 153,
      "Þ": 154,
      "ß": 155,
      "à": 156,
      "á": 157,
      "â": 158,
      "ã": 159,
      "ä": 160,
      "å": 161,
      "æ": 162,
      "ç": 163,
      "è": 164,
      "é": 165,
      "ê": 166,
      "ë": 167,
      "ì": 168,
      "í": 169,
      "î": 170,
      "ï": 171,
      "ð": 172,
      "ñ": 173,
      "ò": 174,
      "ó": 175,
      "ô": 176,
      "õ": 177,
      "ö": 178,
      "÷": 179,
      "ø": 180,
      "ù": 181,
      "ú": 182,
      "û": 183,
      "ü": 184,
      "ý": 185,
      "þ": 186,
      "ÿ": 187,
      "Ā": 188,
      "ā": 189,
      "ă": 190,
      "ą": 191,
      "Ć": 192,
      "ć": 193,
      "Ĉ": 194,
      "ĉ": 195,
      "Ċ": 196,
      "ċ": 197,
      "Č": 198,
      "č": 199,
      "Đ": 200,
      "đ": 201,
      "Ē": 202,
      "ē": 203,
      "ĕ": 204,
      "Ė": 205,
      "ė": 206,
      "ę": 207,
      "ě": 208,
      "Ĝ": 209,
      "ĝ": 210,
      "ğ": 211,
      "ġ": 212,
      "Ĥ": 213,
      "ĥ": 214,
      "ħ": 215,
      "Ĩ": 216,
      "ĩ": 217,
      "Ī": 218,
      "ī": 219,
      "ĭ": 220,
      "İ": 221,
      "ı": 222,
      "Ĵ": 223,
      "ĵ": 224,
      "ĸ": 225,
      "ĺ": 226,
      "Ł": 227,
      "ł": 228,
      "ń": 229,
      "ň": 230,
      "ŋ": 231,
      "Ō": 232,
      "ō": 233,
      "ő": 234,
      "œ": 235,
      "ŕ": 236,
      "Ř": 237,
      "ř": 238,
      "Ś": 239,
      "ś": 240,
      "Ŝ": 241,
      "ŝ": 242,
      "Ş": 243,
      "ş": 244,
      "Š": 245,
      "š": 246,
      "Ţ": 247,
      "ţ": 248,
      "ť": 249,
      "Ũ": 250,
      "ũ": 251,
      "Ū": 252,
      "ū": 253,
      "ů": 254,
      "ű": 255,
      "Ŵ": 256,
      "ŵ": 257,
      "Ŷ": 258,
      "ŷ": 259,
      "ź": 260,
      "Ż": 261,
      "ż": 262,
      "Ž": 263,
      "ž": 264,
      "Ɛ": 265,
      "ƒ": 266,
      "ƛ": 267,
      "ƞ": 268,
      "Ɵ": 269,
      "ơ": 270,
      "Ʃ": 271,
      "ǀ": 272,
      "ǁ": 273,
      "ǂ": 274,
      "ǎ": 275,
      "ǒ": 276,
      "ǧ": 277,
      "ǵ": 278,
      "Ǻ": 279,
      "ș": 280,
      "Ȧ": 281,
      "ȩ": 282,
      "Ȯ": 283,
      "Ȳ": 284,
      "ȳ": 285,
      "ȷ": 286,
      "Ʌ": 287,
      "ɑ": 288,
      "ə": 289,
      "ɛ": 290,
      "ɣ": 291,
      "ɤ": 292,
      "ɳ": 293,
      "ɵ": 294,
      "ɷ": 295,
      "ɸ": 296,
      "ʃ": 297,
      "ʋ": 298,
      "ʎ": 299,
      "ʟ": 300,
      "ʹ": 301,
      "ʺ": 302,
      "ʻ": 303,
      "ʼ": 304,
      "˂": 305,
      "˃": 306,
      "ˆ": 307,
      "ˇ": 308,
      "ˈ": 309,
      "ˉ": 310,
      "ˊ": 311,
      "ː": 312,
      "˗": 313,
      "˘": 314,
      "˙": 315,
      "˚": 316,
      "˜": 317,
      "˝": 318,
      "˭": 319,
      "˿": 320,
      "̀": 321,
      "́": 322,
      "̂": 323,
      "̃": 324,
      "̄": 325,
      "̅": 326,
      "̆": 327,
      "̇": 328,
      "̈": 329,
      "̊": 330,
      "̋": 331,
      "̌": 332,
      "̑": 333,
      "̧": 334,
      "̰": 335,
      "̱": 336,
      "̲": 337,
      "̴": 338,
      "̵": 339,
      "̶": 340,
      "̷": 341,
      "̸": 342,
      "̿": 343,
      "͇": 344,
      "͌": 345,
      "΄": 346,
      "·": 347,
      "Ώ": 348,
      "Α": 349,
      "Β": 350,
      "Γ": 351,
      "Δ": 352,
      "Ε": 353,
      "Ζ": 354,
      "Η": 355,
      "Θ": 356,
      "Ι": 357,
      "Κ": 358,
      "Λ": 359,
      "Μ": 360,
      "Ν": 361,
      "Ξ": 362,
      "Ο": 363,
      "Π": 364,
      "Ρ": 365,
      "΢": 366,
      "Σ": 367,
      "Τ": 368,
      "Υ": 369,
      "Φ": 370,
      "Χ": 371,
      "Ψ": 372,
      "Ω": 373,
      "ά": 374,
      "έ": 375,
      "ή": 376,
      "α": 377,
      "β": 378,
      "γ": 379,
      "δ": 380,
      "ε": 381,
      "ζ": 382,
      "η": 383,
      "θ": 384,
      "ι": 385,
      "κ": 386,
      "λ": 387,
      "μ": 388,
      "ν": 389,
      "ξ": 390,
      "ο": 391,
      "π": 392,
      "ρ": 393,
      "ς": 394,
      "σ": 395,
      "τ": 396,
      "υ": 397,
      "φ": 398,
      "χ": 399,
      "ψ": 400,
      "ω": 401,
      "ό": 402,
      "ύ": 403,
      "ϑ": 404,
      "ϒ": 405,
      "ϕ": 406,
      "ϖ": 407,
      "Ϝ": 408,
      "ϝ": 409,
      "ϰ": 410,
      "ϱ": 411,
      "ϴ": 412,
      "ϵ": 413,
      "Ͽ": 414,
      "Є": 415,
      "І": 416,
      "А": 417,
      "Б": 418,
      "В": 419,
      "Г": 420,
      "Д": 421,
      "Е": 422,
      "И": 423,
      "К": 424,
      "Л": 425,
      "М": 426,
      "Н": 427,
      "О": 428,
      "П": 429,
      "Р": 430,
      "С": 431,
      "Т": 432,
      "У": 433,
      "Ф": 434,
      "Х": 435,
      "Ч": 436,
      "Ш": 437,
      "Э": 438,
      "Я": 439,
      "а": 440,
      "б": 441,
      "в": 442,
      "г": 443,
      "д": 444,
      "е": 445,
      "ж": 446,
      "з": 447,
      "и": 448,
      "й": 449,
      "к": 450,
      "л": 451,
      "м": 452,
      "н": 453,
      "о": 454,
      "п": 455,
      "р": 456,
      "с": 457,
      "т": 458,
      "у": 459,
      "ф": 460,
      "х": 461,
      "ц": 462,
      "ч": 463,
      "ш": 464,
      "щ": 465,
      "ъ": 466,
      "ы": 467,
      "ь": 468,
      "э": 469,
      "ю": 470,
      "я": 471,
      "є": 472,
      "і": 473,
      "ћ": 474,
      "Ѳ": 475,
      "ѵ": 476,
      "ӧ": 477,
      "Ө": 478,
      "׀": 479,
      "׳": 480,
      "ا": 481,
      "ب": 482,
      "ة": 483,
      "ت": 484,
      "د": 485,
      "ر": 486,
      "ز": 487,
      "س": 488,
      "ض": 489,
      "ط": 490,
      "ع": 491,
      "ف": 492,
      "ق": 493,
      "ك": 494,
      "ل": 495,
      "م": 496,
      "ن": 497,
      "ه": 498,
      "و": 499,
      "ي": 500,
      "Ḋ": 501,
      "Ḡ": 502,
      "ḡ": 503,
      "Ḣ": 504,
      "Ṁ": 505,
      "ṁ": 506,
      "Ṅ": 507,
      "ṅ": 508,
      "Ṙ": 509,
      "ṙ": 510,
      "Ṡ": 511,
      "Ṫ": 512,
      "Ṽ": 513,
      "ṽ": 514,
      "Ẇ": 515,
      "ẋ": 516,
      "ẏ": 517,
      "ẑ": 518,
      "Ẽ": 519,
      "ẽ": 520,
      "Ỹ": 521,
      "ỹ": 522,
      "ῡ": 523,
      "ῦ": 524,
      "‐": 525,
      "‑": 526,
      "‒": 527,
      "–": 528,
      "—": 529,
      "―": 530,
      "‖": 531,
      "‘": 532,
      "’": 533,
      "‚": 534,
      "“": 535,
      "”": 536,
      "„": 537,
      "†": 538,
      "‡": 539,
      "•": 540,
      "‥": 541,
      "…": 542,
      "‧": 543,
      "‰": 544,
      "′": 545,
      "″": 546,
      "‴": 547,
      "‵": 548,
      "‹": 549,
      "›": 550,
      "‾": 551,
      "⁁": 552,
      "⁄": 553,
      "⁎": 554,
      "⁗": 555,
      "⁰": 556,
      "₂": 557,
      "₃": 558,
      "₄": 559,
      "€": 560,
      "⃑": 561,
      "⃖": 562,
      "⃗": 563,
      "⃛": 564,
      "⃡": 565,
      "ℂ": 566,
      "℃": 567,
      "ℋ": 568,
      "ℍ": 569,
      "ℏ": 570,
      "ℐ": 571,
      "ℑ": 572,
      "ℒ": 573,
      "ℓ": 574,
      "ℕ": 575,
      "№": 576,
      "℘": 577,
      "ℙ": 578,
      "ℚ": 579,
      "ℛ": 580,
      "ℜ": 581,
      "ℝ": 582,
      "™": 583,
      "ℤ": 584,
      "℧": 585,
      "Å": 586,
      "ℬ": 587,
      "ℭ": 588,
      "ℰ": 589,
      "ℱ": 590,
      "ℳ": 591,
      "ℵ": 592,
      "ℶ": 593,
      "ℷ": 594,
      "ⅅ": 595,
      "ⅆ": 596,
      "ⅇ": 597,
      "ⅈ": 598,
      "⅓": 599,
      "⅔": 600,
      "Ⅰ": 601,
      "Ⅱ": 602,
      "Ⅲ": 603,
      "Ⅳ": 604,
      "Ⅴ": 605,
      "Ⅵ": 606,
      "←": 607,
      "↑": 608,
      "→": 609,
      "↓": 610,
      "↔": 611,
      "↕": 612,
      "↖": 613,
      "↗": 614,
      "↘": 615,
      "↙": 616,
      "↛": 617,
      "↝": 618,
      "↠": 619,
      "↣": 620,
      "↦": 621,
      "↪": 622,
      "↭": 623,
      "↷": 624,
      "↺": 625,
      "↻": 626,
      "↼": 627,
      "↽": 628,
      "↾": 629,
      "⇀": 630,
      "⇁": 631,
      "⇂": 632,
      "⇄": 633,
      "⇅": 634,
      "⇆": 635,
      "⇉": 636,
      "⇋": 637,
      "⇌": 638,
      "⇏": 639,
      "⇐": 640,
      "⇑": 641,
      "⇒": 642,
      "⇓": 643,
      "⇔": 644,
      "⇕": 645,
      "⇛": 646,
      "⇝": 647,
      "∀": 648,
      "∁": 649,
      "∂": 650,
      "∃": 651,
      "∄": 652,
      "∅": 653,
      "∆": 654,
      "∇": 655,
      "∈": 656,
      "∉": 657,
      "∊": 658,
      "∋": 659,
      "∎": 660,
      "∏": 661,
      "∐": 662,
      "∑": 663,
      "−": 664,
      "∓": 665,
      "∕": 666,
      "∖": 667,
      "∗": 668,
      "∘": 669,
      "∙": 670,
      "√": 671,
      "∝": 672,
      "∞": 673,
      "∠": 674,
      "∡": 675,
      "∢": 676,
      "∣": 677,
      "∥": 678,
      "∦": 679,
      "∧": 680,
      "∨": 681,
      "∩": 682,
      "∪": 683,
      "∫": 684,
      "∬": 685,
      "∭": 686,
      "∮": 687,
      "∯": 688,
      "∴": 689,
      "∵": 690,
      "∶": 691,
      "∷": 692,
      "∼": 693,
      "∽": 694,
      "≀": 695,
      "≁": 696,
      "≂": 697,
      "≃": 698,
      "≅": 699,
      "≈": 700,
      "≊": 701,
      "≌": 702,
      "≍": 703,
      "≐": 704,
      "≑": 705,
      "≒": 706,
      "≔": 707,
      "≕": 708,
      "≙": 709,
      "≜": 710,
      "≠": 711,
      "≡": 712,
      "≢": 713,
      "≤": 714,
      "≥": 715,
      "≦": 716,
      "≧": 717,
      "≪": 718,
      "≫": 719,
      "≰": 720,
      "≱": 721,
      "≲": 722,
      "≳": 723,
      "≶": 724,
      "≷": 725,
      "≺": 726,
      "≻": 727,
      "≼": 728,
      "≽": 729,
      "≾": 730,
      "≿": 731,
      "⊀": 732,
      "⊂": 733,
      "⊃": 734,
      "⊄": 735,
      "⊆": 736,
      "⊇": 737,
      "⊈": 738,
      "⊊": 739,
      "⊎": 740,
      "⊏": 741,
      "⊑": 742,
      "⊓": 743,
      "⊔": 744,
      "⊕": 745,
      "⊖": 746,
      "⊗": 747,
      "⊘": 748,
      "⊙": 749,
      "⊚": 750,
      "⊛": 751,
      "⊝": 752,
      "⊞": 753,
      "⊟": 754,
      "⊠": 755,
      "⊢": 756,
      "⊣": 757,
      "⊤": 758,
      "⊥": 759,
      "⊧": 760,
      "⊨": 761,
      "⊩": 762,
      "⊬": 763,
      "⊭": 764,
      "⊲": 765,
      "⊳": 766,
      "⊴": 767,
      "⊸": 768,
      "⊺": 769,
      "⊻": 770,
      "⋀": 771,
      "⋁": 772,
      "⋂": 773,
      "⋃": 774,
      "⋄": 775,
      "⋅": 776,
      "⋆": 777,
      "⋈": 778,
      "⋉": 779,
      "⋊": 780,
      "⋌": 781,
      "⋍": 782,
      "⋎": 783,
      "⋏": 784,
      "⋐": 785,
      "⋔": 786,
      "⋖": 787,
      "⋗": 788,
      "⋘": 789,
      "⋙": 790,
      "⋥": 791,
      "⋮": 792,
      "⋯": 793,
      "⋰": 794,
      "⋱": 795,
      "⌀": 796,
      "⌈": 797,
      "⌉": 798,
      "⌊": 799,
      "⌋": 800,
      "⌜": 801,
      "⌝": 802,
      "⌟": 803,
      "⌢": 804,
      "⌣": 805,
      "〈": 806,
      "〉": 807,
      "⎔": 808,
      "⎕": 809,
      "⏞": 810,
      "⏟": 811,
      "␣": 812,
      "①": 813,
      "②": 814,
      "③": 815,
      "④": 816,
      "⑤": 817,
      "⑥": 818,
      "⑦": 819,
      "⑧": 820,
      "⑨": 821,
      "⑩": 822,
      "─": 823,
      "│": 824,
      "┴": 825,
      "═": 826,
      "║": 827,
      "▒": 828,
      "▓": 829,
      "■": 830,
      "□": 831,
      "▪": 832,
      "▲": 833,
      "△": 834,
      "▴": 835,
      "▵": 836,
      "▶": 837,
      "▷": 838,
      "▹": 839,
      "►": 840,
      "▼": 841,
      "▽": 842,
      "▾": 843,
      "▿": 844,
      "◁": 845,
      "◂": 846,
      "◃": 847,
      "◆": 848,
      "◇": 849,
      "◊": 850,
      "○": 851,
      "●": 852,
      "◦": 853,
      "◯": 854,
      "◻": 855,
      "◼": 856,
      "★": 857,
      "☆": 858,
      "☐": 859,
      "♀": 860,
      "♂": 861,
      "♠": 862,
      "♢": 863,
      "♣": 864,
      "♦": 865,
      "♭": 866,
      "♮": 867,
      "♯": 868,
      "✓": 869,
      "✠": 870,
      "✣": 871,
      "➀": 872,
      "➁": 873,
      "➂": 874,
      "➔": 875,
      "⟂": 876,
      "⟦": 877,
      "⟧": 878,
      "⟨": 879,
      "⟩": 880,
      "⟪": 881,
      "⟫": 882,
      "⟵": 883,
      "⟶": 884,
      "⟷": 885,
      "⟸": 886,
      "⟹": 887,
      "⟺": 888,
      "⟼": 889,
      "⥀": 890,
      "⥂": 891,
      "⥄": 892,
      "⦀": 893,
      "⦵": 894,
      "⦶": 895,
      "⧧": 896,
      "⧫": 897,
      "⧸": 898,
      "⧹": 899,
      "⨀": 900,
      "⨁": 901,
      "⨂": 902,
      "⨆": 903,
      "⨉": 904,
      "⨍": 905,
      "⨿": 906,
      "⩽": 907,
      "⩾": 908,
      "⪅": 909,
      "⪆": 910,
      "⪡": 911,
      "⪢": 912,
      "⪯": 913,
      "⪰": 914,
      "⫪": 915,
      "⬜": 916,
      "⿢": 917,
      "⿤": 918,
      "⿥": 919,
      "⿫": 920,
      "⿲": 921,
      "⿳": 922,
      "⿼": 923,
      "⿿": 924,
      "、": 925,
      "。": 926,
      "〈": 927,
      "〉": 928,
      "《": 929,
      "》": 930,
      "〚": 931,
      "〛": 932,
      "엯": 933,
      "풪": 934,
      "픅": 935,
      "ﬀ": 936,
      "ﬁ": 937,
      "ﬂ": 938,
      "︀": 939,
      "︁": 940,
      "︵": 941,
      "︷": 942,
      "︸": 943,
      "％": 944,
      "（": 945,
      "）": 946,
      "＋": 947,
      "，": 948,
      "－": 949,
      "：": 950,
      "；": 951,
      "＜": 952,
      "＝": 953,
      "＞": 954,
      "～": 955,
      "𝐀": 956,
      "𝐁": 957,
      "𝐂": 958,
      "𝐃": 959,
      "𝐄": 960,
      "𝐅": 961,
      "𝐇": 962,
      "𝐌": 963,
      "𝐏": 964,
      "𝐐": 965,
      "𝐑": 966,
      "𝐒": 967,
      "𝐔": 968,
      "𝐕": 969,
      "𝐗": 970,
      "𝐘": 971,
      "𝐛": 972,
      "𝐞": 973,
      "𝐟": 974,
      "𝐢": 975,
      "𝐤": 976,
      "𝐦": 977,
      "𝐧": 978,
      "𝐩": 979,
      "𝐪": 980,
      "𝐫": 981,
      "𝐮": 982,
      "𝐯": 983,
      "𝐱": 984,
      "𝑿": 985,
      "𝒌": 986,
      "𝒒": 987,
      "𝒓": 988,
      "𝒙": 989,
      "𝒜": 990,
      "𝒫": 991,
      "𝒮": 992,
      "𝒯": 993,
      "𝓁": 994,
      "𝔼": 995,
      "𝚪": 996,
      "𝜀": 997,
      "𝜃": 998,
      "𝜖": 999,
      "𝜗": 1000,
      "𝜸": 1001,
      "𝝁": 1002,
      "𝟎": 1003,
      "𝟏": 1004,
      "##8": 1005,
      "##5": 1006,
      "##P": 1007,
      "##n": 1008,
      "##4": 1009,
      "##s": 1010,
      "##i": 1011,
      "##φ": 1012,
      "##k": 1013,
      "##2": 1014,
      "##z": 1015,
      "##A": 1016,
      "##e": 1017,
      "##−": 1018,
      "##x": 1019,
      "##α": 1020,
      "##a": 1021,
      "##1": 1022,
      "##E": 1023,
      "##p": 1024,
      "##9": 1025,
      "##±": 1026,
      "##ϕ": 1027,
      "##θ": 1028,
      "##S": 1029,
      "##γ": 1030,
      "##F": 1031,
      "##b": 1032,
      "##o": 1033,
      "##d": 1034,
      "##Y": 1035,
      "##3": 1036,
      "##C": 1037,
      "##R": 1038,
      "##π": 1039,
      "##∼": 1040,
      "##T": 1041,
      "##6": 1042,
      "##0": 1043,
      "##g": 1044,
      "##u": 1045,
      "##l": 1046,
      "##t": 1047,
      "##≈": 1048,
      "##r": 1049,
      "##c": 1050,
      "##M": 1051,
      "##D": 1052,
      "##̇": 1053,
      "##σ": 1054,
      "##q": 1055,
      "##Δ": 1056,
      "##y": 1057,
      "##f": 1058,
      "##≠": 1059,
      "##m": 1060,
      "##w": 1061,
      "##h": 1062,
      "##v": 1063,
      "##ρ": 1064,
      "##∇": 1065,
      "##⋅": 1066,
      "##B": 1067,
      "##Q": 1068,
      "##ℓ": 1069,
      "##N": 1070,
      "##ˆ": 1071,
      "##κ": 1072,
      "##I": 1073,
      "##⩽": 1074,
      "##ϵ": 1075,
      "##∕": 1076,
      "##K": 1077,
      "##j": 1078,
      "##ω": 1079,
      "##⊂": 1080,
      "##Γ": 1081,
      "##∪": 1082,
      "##˙": 1083,
      "##W": 1084,
      "##G": 1085,
      "##X": 1086,
      "##̃": 1087,
      "##ξ": 1088,
      "##7": 1089,
      "##O": 1090,
      "##L": 1091,
      "##đ": 1092,
      "##J": 1093,
      "##⋯": 1094,
      "##̂": 1095,
      "##×": 1096,
      "##H": 1097,
      "##β": 1098,
      "##τ": 1099,
      "##Ω": 1100,
      "##∑": 1101,
      "##μ": 1102,
      "##│": 1103,
      "##⊆": 1104,
      "##∂": 1105,
      "##∗": 1106,
      "##⩾": 1107,
      "##≲": 1108,
      "##→": 1109,
      "##∞": 1110,
      "##χ": 1111,
      "##⊤": 1112,
      "##∫": 1113,
      "##∈": 1114,
      "##≤": 1115,
      "##ϑ": 1116,
      "##ν": 1117,
      "##̲": 1118,
      "##¯": 1119,
      "##ε": 1120,
      "##Ψ": 1121,
      "##V": 1122,
      "##ö": 1123,
      "##ä": 1124,
      "##∥": 1125,
      "##▿": 1126,
      "##Λ": 1127,
      "##̄": 1128,
      "##⌣": 1129,
      "##♯": 1130,
      "##⊓": 1131,
      "##η": 1132,
      "##≅": 1133,
      "##⪡": 1134,
      "##λ": 1135,
      "##ζ": 1136,
      "##Φ": 1137,
      "##⇒": 1138,
      "##U": 1139,
      "##≡": 1140,
      "##∙": 1141,
      "##°": 1142,
      "##⨁": 1143,
      "##⊥": 1144,
      "##δ": 1145,
      "##̈": 1146,
      "##▹": 1147,
      "##⊗": 1148,
      "##∝": 1149,
      "##≥": 1150,
      "##Z": 1151,
      "##®": 1152,
      "##⪢": 1153,
      "##ɛ": 1154,
      "##˜": 1155,
      "##Σ": 1156,
      "##≔": 1157,
      "##⇔": 1158,
      "##⃗": 1159,
      "##Θ": 1160,
      "##∣": 1161,
      "##≫": 1162,
      "##ⅆ": 1163,
      "##♢": 1164,
      "##ς": 1165,
      "##Ŝ": 1166,
      "##υ": 1167,
      "##∧": 1168,
      "##∘": 1169,
      "##↦": 1170,
      "##↔": 1171,
      "##∬": 1172,
      "##ϖ": 1173,
      "##Å": 1174,
      "##µ": 1175,
      "##ψ": 1176,
      "##√": 1177,
      "##⿿": 1178,
      "##ħ": 1179,
      "##≕": 1180,
      "##≃": 1181,
      "##Π": 1182,
      "##∀": 1183,
      "##∏": 1184,
      "##↑": 1185,
      "##Ξ": 1186,
      "##∩": 1187,
      "##ϱ": 1188,
      "##™": 1189,
      "##∖": 1190,
      "##⊨": 1191,
      "##□": 1192,
      "##≊": 1193,
      "##⧹": 1194,
      "##ℏ": 1195,
      "##Ⅱ": 1196,
      "##∆": 1197,
      "##∓": 1198,
      "##̊": 1199,
      "##̌": 1200,
      "##⊕": 1201,
      "##℘": 1202,
      "##í": 1203,
      "##÷": 1204,
      "##Э": 1205,
      "##≪": 1206,
      "##⇌": 1207,
      "##é": 1208,
      "##⇄": 1209,
      "##★": 1210,
      "##ˇ": 1211,
      "##⇀": 1212,
      "##ê": 1213,
      "##ı": 1214,
      "##́": 1215,
      "##≐": 1216,
      "##è": 1217,
      "##⋆": 1218,
      "##↓": 1219,
      "##€": 1220,
      "##¬": 1221,
      "##↭": 1222,
      "##≜": 1223,
      "##⋃": 1224,
      "##ϒ": 1225,
      "##⋱": 1226,
      "##⋮": 1227,
      "##л": 1228,
      "##ы": 1229,
      "##⪰": 1230,
      "##⌢": 1231,
      "##б": 1232,
      "##ь": 1233,
      "##я": 1234,
      "##ℛ": 1235,
      "##ι": 1236,
      "##в": 1237,
      "##и": 1238,
      "##й": 1239,
      "##∶": 1240,
      "##´": 1241,
      "##Ε": 1242,
      "##⊈": 1243,
      "##△": 1244,
      "##˭": 1245,
      "##á": 1246,
      "##¨": 1247,
      "##ℝ": 1248,
      "##ℜ": 1249,
      "##⪯": 1250,
      "##Μ": 1251,
      "##𝐀": 1252,
      "##ï": 1253,
      "##ϝ": 1254,
      "##ü": 1255,
      "##⇆": 1256,
      "##≳": 1257,
      "##⟺": 1258,
      "##∴": 1259,
      "##∨": 1260,
      "##⊙": 1261,
      "##ó": 1262,
      "##ū": 1263,
      "##∊": 1264,
      "##à": 1265,
      "##⋁": 1266,
      "##ч": 1267,
      "##∉": 1268,
      "##д": 1269,
      "##н": 1270,
      "##←": 1271,
      "##ú": 1272,
      "##⊢": 1273,
      "##∮": 1274,
      "##˚": 1275,
      "##ź": 1276,
      "##ś": 1277,
      "##∅": 1278,
      "##м": 1279,
      "##е": 1280,
      "##▽": 1281,
      "##а": 1282,
      "##г": 1283,
      "##₃": 1284,
      "##æ": 1285,
      "##̆": 1286,
      "##⊃": 1287,
      "##̅": 1288,
      "##⟶": 1289,
      "##ë": 1290,
      "##○": 1291,
      "##Υ": 1292,
      "##▵": 1293,
      "##ş": 1294,
      "##⊇": 1295,
      "##©": 1296,
      "##ℵ": 1297,
      "##Ċ": 1298,
      "##ñ": 1299,
      "##û": 1300,
      "##т": 1301,
      "##ц": 1302,
      "##щ": 1303,
      "##ÿ": 1304,
      "##ℑ": 1305,
      "##◁": 1306,
      "##ɷ": 1307,
      "##М": 1308,
      "##ě": 1309,
      "##ž": 1310,
      "##풪": 1311,
      "##⃑": 1312,
      "##𝜃": 1313,
      "##𝐫": 1314,
      "##ю": 1315,
      "##ă": 1316,
      "##⊖": 1317,
      "##̱": 1318,
      "##≻": 1319,
      "##≽": 1320,
      "##˘": 1321,
      "##⧧": 1322,
      "##∁": 1323,
      "##£": 1324,
      "##⦀": 1325,
      "##ç": 1326,
      "##ø": 1327,
      "##ů": 1328,
      "##ш": 1329,
      "##ī": 1330,
      "##ń": 1331,
      "##р": 1332,
      "##о": 1333,
      "##п": 1334,
      "##ğ": 1335,
      "##☆": 1336,
      "##Ø": 1337,
      "##⊠": 1338,
      "##◇": 1339,
      "##Н": 1340,
      "##∃": 1341,
      "##⇝": 1342,
      "##⊺": 1343,
      "##⪆": 1344,
      "##ß": 1345,
      "##Ν": 1346,
      "##ň": 1347,
      "##з": 1348,
      "##⧸": 1349,
      "##ℂ": 1350,
      "##⑥": 1351,
      "##⟹": 1352,
      "##с": 1353,
      "##к": 1354,
      "##х": 1355,
      "##⟼": 1356,
      "##ʼ": 1357,
      "##Р": 1358,
      "##Ο": 1359,
      "##⇑": 1360,
      "##⇓": 1361,
      "##С": 1362,
      "##⋔": 1363,
      "##⎔": 1364,
      "##≺": 1365,
      "##⟷": 1366,
      "##⨂": 1367,
      "##ⅇ": 1368,
      "##̸": 1369,
      "##̷": 1370,
      "##⋀": 1371,
      "##Ι": 1372,
      "##⬜": 1373,
      "##ﬁ": 1374,
      "##š": 1375,
      "##𝜀": 1376,
      "##∠": 1377,
      "##≦": 1378,
      "##О": 1379,
      "##⊳": 1380,
      "##̀": 1381,
      "##⃡": 1382,
      "##č": 1383,
      "##э": 1384,
      "##ʹ": 1385,
      "##Đ": 1386,
      "##Ö": 1387,
      "##℃": 1388,
      "##≾": 1389,
      "##ð": 1390,
      "##＝": 1391,
      "##Х": 1392,
      "##═": 1393,
      "##𝓁": 1394,
      "##≒": 1395,
      "##◃": 1396,
      "##ę": 1397,
      "##♮": 1398,
      "##②": 1399,
      "##ȷ": 1400,
      "##ĭ": 1401,
      "##Т": 1402,
      "##⋥": 1403,
      "##ˈ": 1404,
      "##Ĥ": 1405,
      "##â": 1406,
      "##①": 1407,
      "##½": 1408,
      "##∭": 1409,
      "##ã": 1410,
      "##ф": 1411,
      "##₂": 1412,
      "##Ä": 1413,
      "##ș": 1414,
      "##︀": 1415,
      "##⟂": 1416,
      "##◦": 1417,
      "##⥄": 1418,
      "##⊘": 1419,
      "##⋉": 1420,
      "##≷": 1421,
      "##↣": 1422,
      "##ř": 1423,
      "##ý": 1424,
      "##⋈": 1425,
      "##↘": 1426,
      "##ʺ": 1427,
      "##⋂": 1428,
      "##Ð": 1429,
      "##ο": 1430,
      "##ą": 1431,
      "##å": 1432,
      "##▾": 1433,
      "##ά": 1434,
      "##̵": 1435,
      "##ℕ": 1436,
      "##⨿": 1437,
      "##≑": 1438,
      "##𝐏": 1439,
      "##◻": 1440,
      "##ℬ": 1441,
      "##엯": 1442,
      "##У": 1443,
      "##Ʃ": 1444,
      "##²": 1445,
      "##ж": 1446,
      "##ć": 1447,
      "##ǁ": 1448,
      "##¥": 1449,
      "##ϰ": 1450,
      "##∋": 1451,
      "##ﬂ": 1452,
      "##∷": 1453,
      "##Г": 1454,
      "##≰": 1455,
      "##⪅": 1456,
      "##⿤": 1457,
      "##ô": 1458,
      "##↽": 1459,
      "##º": 1460,
      "##↗": 1461,
      "##А": 1462,
      "##В": 1463,
      "##î": 1464,
      "##⊊": 1465,
      "##⿲": 1466,
      "##̿": 1467,
      "##˗": 1468,
      "##⊔": 1469,
      "##𝜖": 1470,
      "##𝒓": 1471,
      "##↕": 1472,
      "##─": 1473,
      "##Ā": 1474,
      "##⊝": 1475,
      "##ъ": 1476,
      "##⇋": 1477,
      "##↾": 1478,
      "##ł": 1479,
      "##⃛": 1480,
      "##⊞": 1481,
      "##ŕ": 1482,
      "##œ": 1483,
      "##ō": 1484,
      "##Ĉ": 1485,
      "##▓": 1486,
      "##ā": 1487,
      "##⏟": 1488,
      "##س": 1489,
      "##ت": 1490,
      "##د": 1491,
      "##ا": 1492,
      "##م": 1493,
      "##Η": 1494,
      "##Á": 1495,
      "##⊄": 1496,
      "##ċ": 1497,
      "##◊": 1498,
      "##↪": 1499,
      "##⇐": 1500,
      "##▶": 1501,
      "##̑": 1502,
      "##▒": 1503,
      "##Í": 1504,
      "##К": 1505,
      "##⟵": 1506,
      "##ǵ": 1507,
      "##¼": 1508,
      "##³": 1509,
      "##ϴ": 1510,
      "##Ͽ": 1511,
      "##Α": 1512,
      "##͇": 1513,
      "##ћ": 1514,
      "##≧": 1515,
      "##П": 1516,
      "##⊬": 1517,
      "##⑤": 1518,
      "##Τ": 1519,
      "##ℒ": 1520,
      "##⊏": 1521,
      "##𝐁": 1522,
      "##ℐ": 1523,
      "##̰": 1524,
      "##Ç": 1525,
      "##＞": 1526,
      "##⋄": 1527,
      "##ǀ": 1528,
      "##ì": 1529,
      "##⊟": 1530,
      "##∐": 1531,
      "##ª": 1532,
      "##¢": 1533,
      "##Ü": 1534,
      "##Ł": 1535,
      "##έ": 1536,
      "##ŷ": 1537,
      "##ɵ": 1538,
      "##ⅈ": 1539,
      "##̴": 1540,
      "##ĝ": 1541,
      "##≁": 1542,
      "##¦": 1543,
      "##⨍": 1544,
      "##⊑": 1545,
      "##Ē": 1546,
      "##É": 1547,
      "##Ū": 1548,
      "##≼": 1549,
      "##Ĝ": 1550,
      "##õ": 1551,
      "##ũ": 1552,
      "##ﬀ": 1553,
      "##ℳ": 1554,
      "##𝒙": 1555,
      "##Ⅰ": 1556,
      "##ù": 1557,
      "##ė": 1558,
      "##⊩": 1559,
      "##ƒ": 1560,
      "##⁰": 1561,
      "##♦": 1562,
      "##⃖": 1563,
      "##♭": 1564,
      "##～": 1565,
      "##⿥": 1566,
      "##Ṽ": 1567,
      "##𝜗": 1568,
      "##ƛ": 1569,
      "##↼": 1570,
      "##ŋ": 1571,
      "##∵": 1572,
      "##Β": 1573,
      "##⊧": 1574,
      "##ò": 1575,
      "##ό": 1576,
      "##⦵": 1577,
      "##Ζ": 1578,
      "##⊲": 1579,
      "##⋏": 1580,
      "##⋊": 1581,
      "##І": 1582,
      "##𝐑": 1583,
      "##İ": 1584,
      "##Ф": 1585,
      "##ẋ": 1586,
      "##∽": 1587,
      "##≙": 1588,
      "##ĥ": 1589,
      "##Ѳ": 1590,
      "##ż": 1591,
      "##Κ": 1592,
      "##ˉ": 1593,
      "##⫪": 1594,
      "##＋": 1595,
      "##ℱ": 1596,
      "##⁄": 1597,
      "##ل": 1598,
      "##ق": 1599,
      "##ع": 1600,
      "##ة": 1601,
      "##≶": 1602,
      "##ő": 1603,
      "##≿": 1604,
      "##⎕": 1605,
      "##ȩ": 1606,
      "##Â": 1607,
      "##ℙ": 1608,
      "##Š": 1609,
      "##Ũ": 1610,
      "##▷": 1611,
      "##⇅": 1612,
      "##þ": 1613,
      "##𝐘": 1614,
      "##③": 1615,
      "##¸": 1616,
      "##⥂": 1617,
      "##⌟": 1618,
      "##ƞ": 1619,
      "##𝒯": 1620,
      "##⇉": 1621,
      "##ē": 1622,
      "##˝": 1623,
      "##Ì": 1624,
      "##Ô": 1625,
      "##ύ": 1626,
      "##ӧ": 1627,
      "##΄": 1628,
      "##♀": 1629,
      "##⥀": 1630,
      "##⑦": 1631,
      "##Ã": 1632,
      "##⑩": 1633,
      "##ℤ": 1634,
      "##Ө": 1635,
      "##║": 1636,
      "##ℋ": 1637,
      "##Д": 1638,
      "##Е": 1639,
      "##И": 1640,
      "##Ê": 1641,
      "##͌": 1642,
      "##Ρ": 1643,
      "##у": 1644,
      "##ĉ": 1645,
      "##↙": 1646,
      "##Ɛ": 1647,
      "##픅": 1648,
      "##⊀": 1649,
      "##↠": 1650,
      "##↝": 1651,
      "##Ĩ": 1652,
      "##⏞": 1653,
      "##ℍ": 1654,
      "##𝐕": 1655,
      "##ţ": 1656,
      "##●": 1657,
      "##Ė": 1658,
      "##⊛": 1659,
      "##∢": 1660,
      "##ˊ": 1661,
      "##Ŷ": 1662,
      "##Ř": 1663,
      "##Ţ": 1664,
      "##𝐔": 1665,
      "##ĺ": 1666,
      "##Ī": 1667,
      "##∦": 1668,
      "##∯": 1669,
      "##¾": 1670,
      "##⊴": 1671,
      "##𝐦": 1672,
      "##𝐇": 1673,
      "##𝐞": 1674,
      "##𝐟": 1675,
      "##𝐂": 1676,
      "##Χ": 1677,
      "##𝐃": 1678,
      "##𝐒": 1679,
      "##⌀": 1680,
      "##◯": 1681,
      "##Ĵ": 1682,
      "##ب": 1683,
      "##ي": 1684,
      "##𝟏": 1685,
      "##⋍": 1686,
      "##ẑ": 1687,
      "##⋘": 1688,
      "##ĩ": 1689,
      "##⿫": 1690,
      "##ή": 1691,
      "##Ч": 1692,
      "##𝔼": 1693,
      "##∎": 1694,
      "##₄": 1695,
      "##⋰": 1696,
      "##Î": 1697,
      "##Ï": 1698,
      "##⇁": 1699,
      "##⌜": 1700,
      "##︁": 1701,
      "##ℰ": 1702,
      "##␣": 1703,
      "##℧": 1704,
      "##𝐩": 1705,
      "##ŵ": 1706,
      "##⊻": 1707,
      "##Ϝ": 1708,
      "##Ẽ": 1709,
      "##ǎ": 1710,
      "##⊎": 1711,
      "##≌": 1712,
      "##𝐪": 1713,
      "##𝒜": 1714,
      "##↛": 1715,
      "##✠": 1716,
      "##і": 1717,
      "##✓": 1718,
      "##ǒ": 1719,
      "##Č": 1720,
      "##Ć": 1721,
      "##⅓": 1722,
      "##ط": 1723,
      "##⨀": 1724,
      "##ℚ": 1725,
      "##̶": 1726,
      "##ر": 1727,
      "##ʋ": 1728,
      "##➔": 1729,
      "##④": 1730,
      "##⅔": 1731,
      "##▴": 1732,
      "##≍": 1733,
      "##Ⅲ": 1734,
      "##▪": 1735,
      "##𝒌": 1736,
      "##⌝": 1737,
      "##ɑ": 1738,
      "##≢": 1739,
      "##┴": 1740,
      "##Ñ": 1741,
      "##Ó": 1742,
      "##𝐮": 1743,
      "##⨆": 1744,
      "##̧": 1745,
      "##Ō": 1746,
      "##ز": 1747,
      "##ː": 1748,
      "##ĵ": 1749,
      "##■": 1750,
      "##⋎": 1751,
      "##𝐅": 1752,
      "##Ȳ": 1753,
      "##¹": 1754,
      "##˿": 1755,
      "##≀": 1756,
      "##ɣ": 1757,
      "##⊭": 1758,
      "##ť": 1759,
      "##ŝ": 1760,
      "##Я": 1761,
      "##ʻ": 1762,
      "##►": 1763,
      "##𝐯": 1764,
      "##ʎ": 1765,
      "##Ǻ": 1766,
      "##Ë": 1767,
      "##⿢": 1768,
      "##Û": 1769,
      "##⋖": 1770,
      "##⋗": 1771,
      "##∄": 1772,
      "##ǧ": 1773,
      "##↻": 1774,
      "##↺": 1775,
      "##Ṁ": 1776,
      "##ṙ": 1777,
      "##＜": 1778,
      "##𝜸": 1779,
      "##ỹ": 1780,
      "##Þ": 1781,
      "##Ʌ": 1782,
      "##𝐧": 1783,
      "##⇛": 1784,
      "##⟸": 1785,
      "##𝐱": 1786,
      "##♣": 1787,
      "##⋐": 1788,
      "##⧫": 1789,
      "##ℶ": 1790,
      "##Ⅵ": 1791,
      "##ű": 1792,
      "##⊣": 1793,
      "##є": 1794,
      "##⊚": 1795,
      "##Ḡ": 1796,
      "##𝐢": 1797,
      "##Б": 1798,
      "##♂": 1799,
      "##ȳ": 1800,
      "##Ŵ": 1801,
      "##☐": 1802,
      "##ℷ": 1803,
      "##⇂": 1804,
      "##⋙": 1805,
      "##˂": 1806,
      "##È": 1807,
      "##ɸ": 1808,
      "##𝒒": 1809,
      "##Є": 1810,
      "##Ɵ": 1811,
      "##≂": 1812,
      "##˃": 1813,
      "##𝐌": 1814,
      "##̋": 1815,
      "##ℭ": 1816,
      "##↖": 1817,
      "##΢": 1818,
      "##⊸": 1819,
      "##≱": 1820,
      "##Л": 1821,
      "##Ш": 1822,
      "##Ḋ": 1823,
      "##Ṡ": 1824,
      "##À": 1825,
      "##𝟎": 1826,
      "##ġ": 1827,
      "##↷": 1828,
      "##⇕": 1829,
      "##Ś": 1830,
      "##ⅅ": 1831,
      "##✣": 1832,
      "##ن": 1833,
      "##◂": 1834,
      "##Ž": 1835,
      "##∡": 1836,
      "##Ȯ": 1837,
      "##⋌": 1838,
      "##ĸ": 1839,
      "##𝐤": 1840,
      "##𝐗": 1841,
      "##𝐄": 1842,
      "##◆": 1843,
      "##𝐐": 1844,
      "##ǂ": 1845,
      "##𝒮": 1846,
      "##⑧": 1847,
      "##Ⅳ": 1848,
      "##ẏ": 1849,
      "##⿳": 1850,
      "##ĕ": 1851,
      "##ѵ": 1852,
      "##ʃ": 1853,
      "##ə": 1854,
      "##⇏": 1855,
      "##Ώ": 1856,
      "##𝒫": 1857,
      "##و": 1858,
      "##ɤ": 1859,
      "##𝚪": 1860,
      "##Ⅴ": 1861,
      "##⿼": 1862,
      "##Ṙ": 1863,
      "##Æ": 1864,
      "##Ú": 1865,
      "##▲": 1866,
      "##Ṅ": 1867,
      "##⦶": 1868,
      "##𝑿": 1869,
      "##ɳ": 1870,
      "##ف": 1871,
      "##Ḣ": 1872,
      "##⑨": 1873,
      "##ḡ": 1874,
      "##ẽ": 1875,
      "##▼": 1876,
      "##⨉": 1877,
      "##𝐛": 1878,
      "##ك": 1879,
      "##𝝁": 1880,
      "##ṅ": 1881,
      "##ه": 1882,
      "##ʟ": 1883,
      "##ض": 1884,
      "##Ş": 1885,
      "##ṁ": 1886,
      "##♠": 1887,
      "##Ỹ": 1888,
      "##Å": 1889,
      "##Ż": 1890,
      "##ṽ": 1891,
      "##Ẇ": 1892,
      "##ῦ": 1893,
      "##ơ": 1894,
      "##Ȧ": 1895,
      "##ῡ": 1896,
      "##Ṫ": 1897,
      "##◼": 1898,
      "##➂": 1899,
      "##➁": 1900,
      "##he": 1901,
      "the": 1902,
      "##on": 1903,
      "##ti": 1904,
      "##er": 1905,
      "##ed": 1906,
      "##es": 1907,
      "##en": 1908,
      "##in": 1909,
      "##or": 1910,
      "##al": 1911,
      "of": 1912,
      "##at": 1913,
      "##nd": 1914,
      "##tion": 1915,
      "in": 1916,
      "##re": 1917,
      "##an": 1918,
      "##ro": 1919,
      "##it": 1920,
      "and": 1921,
      "##ar": 1922,
      "##as": 1923,
      "##ic": 1924,
      "##ec": 1925,
      "##ing": 1926,
      "to": 1927,
      "##ent": 1928,
      "##is": 1929,
      "##el": 1930,
      "##ation": 1931,
      "##ol": 1932,
      "##ac": 1933,
      "##et": 1934,
      "th": 1935,
      "##mp": 1936,
      "##ur": 1937,
      "##le": 1938,
      "is": 1939,
      "##ig": 1940,
      "##ul": 1941,
      "##tr": 1942,
      "for": 1943,
      "con": 1944,
      "The": 1945,
      "##ow": 1946,
      "##ly": 1947,
      "co": 1948,
      "##id": 1949,
      "##ith": 1950,
      "##st": 1951,
      "with": 1952,
      "##il": 1953,
      "##uc": 1954,
      "re": 1955,
      "##im": 1956,
      "##ve": 1957,
      "##ou": 1958,
      "pro": 1959,
      "be": 1960,
      "##ot": 1961,
      "as": 1962,
      "##os": 1963,
      "##ter": 1964,
      "##ce": 1965,
      "on": 1966,
      "ex": 1967,
      "##tic": 1968,
      "an": 1969,
      "at": 1970,
      "##ff": 1971,
      "##ure": 1972,
      "##od": 1973,
      "##um": 1974,
      "that": 1975,
      "st": 1976,
      "was": 1977,
      "by": 1978,
      "al": 1979,
      "##si": 1980,
      "##ity": 1981,
      "are": 1982,
      "##ate": 1983,
      "##ts": 1984,
      "##am": 1985,
      "##om": 1986,
      "##ated": 1987,
      "##ain": 1988,
      "##ab": 1989,
      "res": 1990,
      "##ver": 1991,
      "##rom": 1992,
      "##ess": 1993,
      "##ect": 1994,
      "de": 1995,
      "##tin": 1996,
      "##ge": 1997,
      "##se": 1998,
      "di": 1999,
      "comp": 2000,
      "##ere": 2001,
      "##ad": 2002,
      "##ir": 2003,
      "sh": 2004,
      "##her": 2005,
      "##qu": 2006,
      "##ut": 2007,
      "ac": 2008,
      "##pp": 2009,
      "##ment": 2010,
      "were": 2011,
      "sp": 2012,
      "or": 2013,
      "##ting": 2014,
      "from": 2015,
      "##ay": 2016,
      "##ib": 2017,
      "wh": 2018,
      "##per": 2019,
      "ch": 2020,
      "##iz": 2021,
      "us": 2022,
      "##oc": 2023,
      "su": 2024,
      "##res": 2025,
      "Fig": 2026,
      "str": 2027,
      "en": 2028,
      "##igh": 2029,
      "tr": 2030,
      "dis": 2031,
      "##op": 2032,
      "##for": 2033,
      "##ap": 2034,
      "##ase": 2035,
      "##ich": 2036,
      "##tiv": 2037,
      "##th": 2038,
      "##00": 2039,
      "##ical": 2040,
      "##lu": 2041,
      "##ine": 2042,
      "In": 2043,
      "##yst": 2044,
      "##ant": 2045,
      "##if": 2046,
      "##ition": 2047,
      "##tive": 2048,
      "inc": 2049,
      "##ell": 2050,
      "##sion": 2051,
      "##em": 2052,
      "##ted": 2053,
      "##ations": 2054,
      "ob": 2055,
      "##ers": 2056,
      "##ence": 2057,
      "##us": 2058,
      "par": 2059,
      "which": 2060,
      "can": 2061,
      "show": 2062,
      "el": 2063,
      "##ag": 2064,
      "this": 2065,
      "##able": 2066,
      "mod": 2067,
      "##and": 2068,
      "diff": 2069,
      "##ater": 2070,
      "met": 2071,
      "##ely": 2072,
      "##all": 2073,
      "ad": 2074,
      "##ace": 2075,
      "sol": 2076,
      "##ri": 2077,
      "##ution": 2078,
      "##ous": 2079,
      "##ies": 2080,
      "##duc": 2081,
      "app": 2082,
      "##og": 2083,
      "se": 2084,
      "inter": 2085,
      "ph": 2086,
      "##ial": 2087,
      "##ectr": 2088,
      "##ave": 2089,
      "##action": 2090,
      "per": 2091,
      "##un": 2092,
      "##ak": 2093,
      "##ore": 2094,
      "we": 2095,
      "##ding": 2096,
      "##les": 2097,
      "##tain": 2098,
      "##ud": 2099,
      "##ved": 2100,
      "##low": 2101,
      "##form": 2102,
      "te": 2103,
      "##erat": 2104,
      "##ance": 2105,
      "eff": 2106,
      "##rou": 2107,
      "##ue": 2108,
      "whe": 2109,
      "ab": 2110,
      "##ther": 2111,
      "##act": 2112,
      "resul": 2113,
      "##amp": 2114,
      "##yl": 2115,
      "Th": 2116,
      "ind": 2117,
      "int": 2118,
      "not": 2119,
      "pl": 2120,
      "pre": 2121,
      "##ign": 2122,
      "temp": 2123,
      "val": 2124,
      "ne": 2125,
      "tran": 2126,
      "##ch": 2127,
      "sur": 2128,
      "me": 2129,
      "##ound": 2130,
      "differ": 2131,
      "##etw": 2132,
      "##ide": 2133,
      "##uct": 2134,
      "cons": 2135,
      "##tial": 2136,
      "##reas": 2137,
      "have": 2138,
      "temperat": 2139,
      "##aly": 2140,
      "imp": 2141,
      "##age": 2142,
      "pr": 2143,
      "##ents": 2144,
      "form": 2145,
      "10": 2146,
      "##ons": 2147,
      "rel": 2148,
      "##eter": 2149,
      "le": 2150,
      "##ates": 2151,
      "##face": 2152,
      "##ens": 2153,
      "exp": 2154,
      "##dition": 2155,
      "##vel": 2156,
      "##een": 2157,
      "un": 2158,
      "##so": 2159,
      "##erg": 2160,
      "##etween": 2161,
      "using": 2162,
      "##end": 2163,
      "used": 2164,
      "between": 2165,
      "##ied": 2166,
      "rep": 2167,
      "meth": 2168,
      "##ip": 2169,
      "##ong": 2170,
      "##yd": 2171,
      "##ach": 2172,
      "stud": 2173,
      "##ite": 2174,
      "##enc": 2175,
      "has": 2176,
      "##ally": 2177,
      "##ction": 2178,
      "tw": 2179,
      "it": 2180,
      "high": 2181,
      "##ystem": 2182,
      "This": 2183,
      "low": 2184,
      "tim": 2185,
      "temperature": 2186,
      "resp": 2187,
      "pres": 2188,
      "##cess": 2189,
      "also": 2190,
      "than": 2191,
      "model": 2192,
      "dep": 2193,
      "been": 2194,
      "##vi": 2195,
      "##ties": 2196,
      "conc": 2197,
      "sub": 2198,
      "##ary": 2199,
      "##ree": 2200,
      "##ific": 2201,
      "##ight": 2202,
      "samp": 2203,
      "trans": 2204,
      "##ating": 2205,
      "##gh": 2206,
      "cont": 2207,
      "sc": 2208,
      "system": 2209,
      "##iv": 2210,
      "##uld": 2211,
      "##ort": 2212,
      "struct": 2213,
      "two": 2214,
      "surface": 2215,
      "##ari": 2216,
      "##ility": 2217,
      "##ser": 2218,
      "pol": 2219,
      "##ond": 2220,
      "##uch": 2221,
      "cor": 2222,
      "##sis": 2223,
      "energ": 2224,
      "##ures": 2225,
      "analy": 2226,
      "##ection": 2227,
      "des": 2228,
      "car": 2229,
      "##ep": 2230,
      "##ill": 2231,
      "meas": 2232,
      "cr": 2233,
      "ev": 2234,
      "##ati": 2235,
      "##orp": 2236,
      "##ectro": 2237,
      "##ange": 2238,
      "##eld": 2239,
      "##est": 2240,
      "cell": 2241,
      "##tively": 2242,
      "##ech": 2243,
      "cal": 2244,
      "obser": 2245,
      "##ular": 2246,
      "dec": 2247,
      "##entr": 2248,
      "##ble": 2249,
      "##yn": 2250,
      "bas": 2251,
      "qu": 2252,
      "rec": 2253,
      "he": 2254,
      "##der": 2255,
      "gr": 2256,
      "##hem": 2257,
      "results": 2258,
      "produc": 2259,
      "##our": 2260,
      "##tim": 2261,
      "##ected": 2262,
      "##ass": 2263,
      "obtain": 2264,
      "mol": 2265,
      "##ydro": 2266,
      "##te": 2267,
      "##ield": 2268,
      "energy": 2269,
      "##ym": 2270,
      "all": 2271,
      "exper": 2272,
      "char": 2273,
      "und": 2274,
      "mo": 2275,
      "##yp": 2276,
      "time": 2277,
      "sign": 2278,
      "##ose": 2279,
      "##ard": 2280,
      "##gen": 2281,
      "electr": 2282,
      "different": 2283,
      "##ative": 2284,
      "method": 2285,
      "sim": 2286,
      "##ne": 2287,
      "ox": 2288,
      "these": 2289,
      "process": 2290,
      "solution": 2291,
      "##etr": 2292,
      "red": 2293,
      "##tical": 2294,
      "##ix": 2295,
      "gen": 2296,
      "##trib": 2297,
      "increas": 2298,
      "##ors": 2299,
      "##ized": 2300,
      "equ": 2301,
      "am": 2302,
      "##ves": 2303,
      "12": 2304,
      "dat": 2305,
      "pos": 2306,
      "##ues": 2307,
      "reg": 2308,
      "experim": 2309,
      "partic": 2310,
      "acc": 2311,
      "calc": 2312,
      "ass": 2313,
      "##oth": 2314,
      "spec": 2315,
      "##−1": 2316,
      "shown": 2317,
      "##fer": 2318,
      "Al": 2319,
      "##unction": 2320,
      "##ared": 2321,
      "##ined": 2322,
      "min": 2323,
      "##tivity": 2324,
      "##ms": 2325,
      "cl": 2326,
      "##ici": 2327,
      "##ang": 2328,
      "##ist": 2329,
      "##ane": 2330,
      "concentr": 2331,
      "##ion": 2332,
      "##ack": 2333,
      "hydro": 2334,
      "under": 2335,
      "mic": 2336,
      "°C": 2337,
      "cur": 2338,
      "##ever": 2339,
      "water": 2340,
      "other": 2341,
      "vari": 2342,
      "##ork": 2343,
      "data": 2344,
      "20": 2345,
      "##ub": 2346,
      "more": 2347,
      "##O2": 2348,
      "##ments": 2349,
      "one": 2350,
      "##ene": 2351,
      "##ization": 2352,
      "##aterial": 2353,
      "nan": 2354,
      "where": 2355,
      "##ential": 2356,
      "reaction": 2357,
      "fil": 2358,
      "##out": 2359,
      "##fter": 2360,
      "et": 2361,
      "electro": 2362,
      "over": 2363,
      "num": 2364,
      "##ium": 2365,
      "col": 2366,
      "observed": 2367,
      "into": 2368,
      "obtained": 2369,
      "##ax": 2370,
      "##rop": 2371,
      "com": 2372,
      "material": 2373,
      "perform": 2374,
      "##ame": 2375,
      "hig": 2376,
      "function": 2377,
      "##lic": 2378,
      "ag": 2379,
      "op": 2380,
      "lar": 2381,
      "##ber": 2382,
      "##ile": 2383,
      "such": 2384,
      "##ros": 2385,
      "For": 2386,
      "calcul": 2387,
      "##uring": 2388,
      "reduc": 2389,
      "fr": 2390,
      "##eng": 2391,
      "##olog": 2392,
      "##hed": 2393,
      "##owever": 2394,
      "##rease": 2395,
      "fol": 2396,
      "po": 2397,
      "It": 2398,
      "grou": 2399,
      "condition": 2400,
      "##ast": 2401,
      "no": 2402,
      "sm": 2403,
      "##hen": 2404,
      "values": 2405,
      "##ize": 2406,
      "both": 2407,
      "li": 2408,
      "##ectively": 2409,
      "##ome": 2410,
      "but": 2411,
      "present": 2412,
      "##ear": 2413,
      "##lex": 2414,
      "phase": 2415,
      "cat": 2416,
      "##de": 2417,
      "##au": 2418,
      "##ability": 2419,
      "gener": 2420,
      "due": 2421,
      "based": 2422,
      "only": 2423,
      "15": 2424,
      "##mal": 2425,
      "lay": 2426,
      "out": 2427,
      "##ox": 2428,
      "##acter": 2429,
      "typ": 2430,
      "their": 2431,
      "##oun": 2432,
      "ar": 2433,
      "appro": 2434,
      "##ensity": 2435,
      "its": 2436,
      "##fore": 2437,
      "indic": 2438,
      "deter": 2439,
      "##yc": 2440,
      "##gr": 2441,
      "##row": 2442,
      "ver": 2443,
      "structure": 2444,
      "spectr": 2445,
      "##ail": 2446,
      "As": 2447,
      "order": 2448,
      "study": 2449,
      "11": 2450,
      "higher": 2451,
      "##ider": 2452,
      "##lo": 2453,
      "##ould": 2454,
      "##als": 2455,
      "##ia": 2456,
      "follow": 2457,
      "vol": 2458,
      "##ency": 2459,
      "up": 2460,
      "each": 2461,
      "##cc": 2462,
      "##ength": 2463,
      "13": 2464,
      "determ": 2465,
      "##one": 2466,
      "molec": 2467,
      "param": 2468,
      "pe": 2469,
      "det": 2470,
      "##anc": 2471,
      "well": 2472,
      "respectively": 2473,
      "##atter": 2474,
      "bi": 2475,
      "rate": 2476,
      "carb": 2477,
      "##adi": 2478,
      "im": 2479,
      "bec": 2480,
      "##pl": 2481,
      "##ll": 2482,
      "##str": 2483,
      "##irst": 2484,
      "flu": 2485,
      "small": 2486,
      "there": 2487,
      "when": 2488,
      "experiment": 2489,
      "proper": 2490,
      "pot": 2491,
      "rem": 2492,
      "Table": 2493,
      "may": 2494,
      "cryst": 2495,
      "value": 2496,
      "mag": 2497,
      "##av": 2498,
      "group": 2499,
      "found": 2500,
      "##ded": 2501,
      "##ects": 2502,
      "nm": 2503,
      "samples": 2504,
      "analysis": 2505,
      "prop": 2506,
      "peak": 2507,
      "ther": 2508,
      "##orption": 2509,
      "##ph": 2510,
      "##tribution": 2511,
      "signific": 2512,
      "##rough": 2513,
      "es": 2514,
      "##orted": 2515,
      "##hemical": 2516,
      "However": 2517,
      "cm": 2518,
      "consider": 2519,
      "We": 2520,
      "##ilar": 2521,
      "effect": 2522,
      "so": 2523,
      "dire": 2524,
      "def": 2525,
      "##ensi": 2526,
      "##ct": 2527,
      "character": 2528,
      "mix": 2529,
      "non": 2530,
      "##urther": 2531,
      "during": 2532,
      "flow": 2533,
      "##par": 2534,
      "shows": 2535,
      "after": 2536,
      "loc": 2537,
      "level": 2538,
      "##ured": 2539,
      "##atic": 2540,
      "fact": 2541,
      "measure": 2542,
      "ter": 2543,
      "electron": 2544,
      "##ie": 2545,
      "significant": 2546,
      "field": 2547,
      "complex": 2548,
      "number": 2549,
      "same": 2550,
      "first": 2551,
      "19": 2552,
      "concentration": 2553,
      "##ough": 2554,
      "line": 2555,
      "conditions": 2556,
      "##ness": 2557,
      "contro": 2558,
      "200": 2559,
      "fe": 2560,
      "##osed": 2561,
      "##ause": 2562,
      "##osition": 2563,
      "work": 2564,
      "addition": 2565,
      "##ently": 2566,
      "##2O": 2567,
      "##cr": 2568,
      "lo": 2569,
      "fin": 2570,
      "case": 2571,
      "cap": 2572,
      "##velop": 2573,
      "state": 2574,
      "through": 2575,
      "100": 2576,
      "abs": 2577,
      "em": 2578,
      "acid": 2579,
      "##resp": 2580,
      "potential": 2581,
      "range": 2582,
      "inf": 2583,
      "##br": 2584,
      "sel": 2585,
      "##echan": 2586,
      "sample": 2587,
      "poin": 2588,
      "##ick": 2589,
      "atom": 2590,
      "increase": 2591,
      "size": 2592,
      "mm": 2593,
      "man": 2594,
      "##the": 2595,
      "##ual": 2596,
      "pow": 2597,
      "##ulation": 2598,
      "properties": 2599,
      "##ective": 2600,
      "##tit": 2601,
      "##ole": 2602,
      "could": 2603,
      "giv": 2604,
      "##tig": 2605,
      "corresp": 2606,
      "develop": 2607,
      "prov": 2608,
      "##let": 2609,
      "rati": 2610,
      "layer": 2611,
      "##ination": 2612,
      "##formation": 2613,
      "use": 2614,
      "syn": 2615,
      "three": 2616,
      "dr": 2617,
      "mechan": 2618,
      "##rr": 2619,
      "##tif": 2620,
      "supp": 2621,
      "lower": 2622,
      "press": 2623,
      "set": 2624,
      "##Cl": 2625,
      "##ited": 2626,
      "then": 2627,
      "inclu": 2628,
      "##echn": 2629,
      "CH": 2630,
      "depend": 2631,
      "14": 2632,
      "mon": 2633,
      "##vious": 2634,
      "##ory": 2635,
      "will": 2636,
      "main": 2637,
      "occ": 2638,
      "conf": 2639,
      "similar": 2640,
      "cells": 2641,
      "Co": 2642,
      "##ust": 2643,
      "most": 2644,
      "phot": 2645,
      "##vestig": 2646,
      "grow": 2647,
      "carbon": 2648,
      "25": 2649,
      "##aph": 2650,
      "##eters": 2651,
      "##own": 2652,
      "investig": 2653,
      "##hib": 2654,
      "sl": 2655,
      "tre": 2656,
      "##ove": 2657,
      "##crib": 2658,
      "curr": 2659,
      "Si": 2660,
      "gas": 2661,
      "##ture": 2662,
      "##sible": 2663,
      "mat": 2664,
      "##are": 2665,
      "reported": 2666,
      "##ides": 2667,
      "##ension": 2668,
      "our": 2669,
      "Eq": 2670,
      "30": 2671,
      "##ha": 2672,
      "##gan": 2673,
      "contain": 2674,
      "interaction": 2675,
      "exc": 2676,
      "techn": 2677,
      "##ys": 2678,
      "band": 2679,
      "large": 2680,
      "some": 2681,
      "very": 2682,
      "##ays": 2683,
      "##onding": 2684,
      "conduc": 2685,
      "density": 2686,
      "##ural": 2687,
      "16": 2688,
      "fre": 2689,
      "disc": 2690,
      "##ites": 2691,
      "##lement": 2692,
      "max": 2693,
      "##tal": 2694,
      "##uted": 2695,
      "lim": 2696,
      "const": 2697,
      "formation": 2698,
      "##que": 2699,
      "measured": 2700,
      "while": 2701,
      "##its": 2702,
      "These": 2703,
      "ion": 2704,
      "##ann": 2705,
      "1H": 2706,
      "##imum": 2707,
      "cyc": 2708,
      "compared": 2709,
      "##ex": 2710,
      "compound": 2711,
      "##ission": 2712,
      "ref": 2713,
      "about": 2714,
      "There": 2715,
      "polym": 2716,
      "##econd": 2717,
      "corre": 2718,
      "##10": 2719,
      "ini": 2720,
      "##ges": 2721,
      "sing": 2722,
      "pressure": 2723,
      "describ": 2724,
      "pa": 2725,
      "##over": 2726,
      "##ffici": 2727,
      "##den": 2728,
      "##ock": 2729,
      "##istic": 2730,
      "effici": 2731,
      "##ities": 2732,
      "calculated": 2733,
      "import": 2734,
      "##ord": 2735,
      "##ob": 2736,
      "dim": 2737,
      "distribution": 2738,
      "To": 2739,
      "synthe": 2740,
      "##ases": 2741,
      "##ood": 2742,
      "parameters": 2743,
      "##ines": 2744,
      "sug": 2745,
      "##cop": 2746,
      "##amic": 2747,
      "ratio": 2748,
      "##ount": 2749,
      "##alyst": 2750,
      "50": 2751,
      "experimental": 2752,
      "Fe": 2753,
      "requ": 2754,
      "frequ": 2755,
      "mean": 2756,
      "##ise": 2757,
      "compar": 2758,
      "mem": 2759,
      "beha": 2760,
      "##ind": 2761,
      "##ke": 2762,
      "lead": 2763,
      "because": 2764,
      "transi": 2765,
      "dem": 2766,
      "##ention": 2767,
      "occur": 2768,
      "##netic": 2769,
      "current": 2770,
      "repres": 2771,
      "Cu": 2772,
      "##ains": 2773,
      "behavi": 2774,
      "given": 2775,
      "materials": 2776,
      "ads": 2777,
      "ext": 2778,
      "##ically": 2779,
      "above": 2780,
      "area": 2781,
      "performed": 2782,
      "metal": 2783,
      "load": 2784,
      "Ti": 2785,
      "yield": 2786,
      "pred": 2787,
      "within": 2788,
      "applic": 2789,
      "fl": 2790,
      "##ince": 2791,
      "##lear": 2792,
      "prec": 2793,
      "mul": 2794,
      "##cep": 2795,
      "result": 2796,
      "previous": 2797,
      "##ath": 2798,
      "##ilic": 2799,
      "Hz": 2800,
      "##ages": 2801,
      "she": 2802,
      "##ules": 2803,
      "gl": 2804,
      "aver": 2805,
      "oper": 2806,
      "chang": 2807,
      "estim": 2808,
      "##ross": 2809,
      "single": 2810,
      "second": 2811,
      "##ism": 2812,
      "decreas": 2813,
      "##oci": 2814,
      "##ost": 2815,
      "increased": 2816,
      "strong": 2817,
      "stress": 2818,
      "thick": 2819,
      "particles": 2820,
      "extr": 2821,
      "further": 2822,
      "##round": 2823,
      "spectra": 2824,
      "total": 2825,
      "optim": 2826,
      "studies": 2827,
      "##ume": 2828,
      "der": 2829,
      "bond": 2830,
      "II": 2831,
      "catalyst": 2832,
      "comm": 2833,
      "ser": 2834,
      "##ark": 2835,
      "oxid": 2836,
      "An": 2837,
      "##lied": 2838,
      "##ger": 2839,
      "heat": 2840,
      "step": 2841,
      "comb": 2842,
      "kn": 2843,
      "##ins": 2844,
      "##zed": 2845,
      "long": 2846,
      "do": 2847,
      "br": 2848,
      "see": 2849,
      "region": 2850,
      "solid": 2851,
      "##ified": 2852,
      "ins": 2853,
      "sti": 2854,
      "coll": 2855,
      "gre": 2856,
      "##yr": 2857,
      "mass": 2858,
      "##EM": 2859,
      "##eth": 2860,
      "bound": 2861,
      "##olution": 2862,
      "type": 2863,
      "##up": 2864,
      "presence": 2865,
      "tak": 2866,
      "##ult": 2867,
      "chemical": 2868,
      "organ": 2869,
      "those": 2870,
      "should": 2871,
      "carri": 2872,
      "##ade": 2873,
      "##ores": 2874,
      "##ording": 2875,
      "systems": 2876,
      "substr": 2877,
      "constant": 2878,
      "iden": 2879,
      "thermal": 2880,
      "##ants": 2881,
      "##ression": 2882,
      "transfer": 2883,
      "##onstr": 2884,
      "power": 2885,
      "##ov": 2886,
      "impro": 2887,
      "18": 2888,
      "determined": 2889,
      "dist": 2890,
      "##orph": 2891,
      "##old": 2892,
      "control": 2893,
      "compon": 2894,
      "important": 2895,
      "corresponding": 2896,
      "##til": 2897,
      "bl": 2898,
      "transition": 2899,
      "design": 2900,
      "##ale": 2901,
      "prep": 2902,
      "##lor": 2903,
      "nor": 2904,
      "##ric": 2905,
      "##etry": 2906,
      "##ology": 2907,
      "ca": 2908,
      "new": 2909,
      "##xim": 2910,
      "point": 2911,
      "##ynamic": 2912,
      "effects": 2913,
      "##ences": 2914,
      "aff": 2915,
      "they": 2916,
      "activity": 2917,
      "##ice": 2918,
      "initial": 2919,
      "hydrogen": 2920,
      "dom": 2921,
      "med": 2922,
      "separ": 2923,
      "inv": 2924,
      "##ogr": 2925,
      "##get": 2926,
      "##tern": 2927,
      "following": 2928,
      "prob": 2929,
      "##ug": 2930,
      "##MR": 2931,
      "film": 2932,
      "17": 2933,
      "would": 2934,
      "micro": 2935,
      "tes": 2936,
      "##ired": 2937,
      "performance": 2938,
      "##ational": 2939,
      "##ibr": 2940,
      "##ately": 2941,
      "##astic": 2942,
      "##NA": 2943,
      "measurements": 2944,
      "growth": 2945,
      "showed": 2946,
      "induc": 2947,
      "increasing": 2948,
      "applied": 2949,
      "predic": 2950,
      "polymer": 2951,
      "##ward": 2952,
      "change": 2953,
      "##50": 2954,
      "##orb": 2955,
      "bu": 2956,
      "pH": 2957,
      "av": 2958,
      "vis": 2959,
      "prote": 2960,
      "pur": 2961,
      "stand": 2962,
      "ang": 2963,
      "##omp": 2964,
      "##med": 2965,
      "si": 2966,
      "less": 2967,
      "##ire": 2968,
      "##ced": 2969,
      "linear": 2970,
      "free": 2971,
      "nit": 2972,
      "fu": 2973,
      "##etric": 2974,
      "respon": 2975,
      "bel": 2976,
      "experiments": 2977,
      "oxy": 2978,
      "length": 2979,
      "##ump": 2980,
      "mL": 2981,
      "##roduc": 2982,
      "##ress": 2983,
      "##12": 2984,
      "solv": 2985,
      "species": 2986,
      "maximum": 2987,
      "##ient": 2988,
      "##other": 2989,
      "micros": 2990,
      "##aw": 2991,
      "ro": 2992,
      "Ni": 2993,
      "##ive": 2994,
      "##sequ": 2995,
      "specific": 2996,
      "radi": 2997,
      "average": 2998,
      "##effici": 2999,
      "Na": 3000,
      "approxim": 3001,
      "##quid": 3002,
      "prepared": 3003,
      "described": 3004,
      "##ature": 3005,
      "treat": 3006,
      "##iod": 3007,
      "membr": 3008,
      "allow": 3009,
      "##sed": 3010,
      "sever": 3011,
      "##ft": 3012,
      "##ful": 3013,
      "##O3": 3014,
      "##O4": 3015,
      "activ": 3016,
      "prot": 3017,
      "conver": 3018,
      "liquid": 3019,
      "section": 3020,
      "##hes": 3021,
      "coeffici": 3022,
      "NMR": 3023,
      "air": 3024,
      "films": 3025,
      "Re": 3026,
      "oxygen": 3027,
      "Therefore": 3028,
      "structures": 3029,
      "groups": 3030,
      "multi": 3031,
      "##vir": 3032,
      "##atively": 3033,
      "24": 3034,
      "##sive": 3035,
      "##alu": 3036,
      "if": 3037,
      "frequency": 3038,
      "considered": 3039,
      "neg": 3040,
      "examp": 3041,
      "influ": 3042,
      "direct": 3043,
      "reduction": 3044,
      "##ator": 3045,
      "techni": 3046,
      "ge": 3047,
      "approach": 3048,
      "##ink": 3049,
      "demonstr": 3050,
      "super": 3051,
      "proble": 3052,
      "##anol": 3053,
      "##viron": 3054,
      "mg": 3055,
      "local": 3056,
      "near": 3057,
      "magnetic": 3058,
      "emission": 3059,
      "enh": 3060,
      "sour": 3061,
      "sugges": 3062,
      "proposed": 3063,
      "possible": 3064,
      "increases": 3065,
      "any": 3066,
      "crystall": 3067,
      "ste": 3068,
      "characteristic": 3069,
      "evalu": 3070,
      "emp": 3071,
      "volume": 3072,
      "simp": 3073,
      "##attern": 3074,
      "phen": 3075,
      "##rix": 3076,
      "correl": 3077,
      "40": 3078,
      "Zn": 3079,
      "##ological": 3080,
      "##ector": 3081,
      "along": 3082,
      "dimension": 3083,
      "##aces": 3084,
      "diam": 3085,
      "##ute": 3086,
      "capac": 3087,
      "methods": 3088,
      "associ": 3089,
      "##onic": 3090,
      "Figure": 3091,
      "test": 3092,
      "pattern": 3093,
      "without": 3094,
      "end": 3095,
      "direction": 3096,
      "presented": 3097,
      "matrix": 3098,
      "diffu": 3099,
      "period": 3100,
      "compounds": 3101,
      "##els": 3102,
      "position": 3103,
      "ions": 3104,
      "exhib": 3105,
      "charge": 3106,
      "light": 3107,
      "dev": 3108,
      "molecules": 3109,
      "##ually": 3110,
      "changes": 3111,
      "bin": 3112,
      "##oss": 3113,
      "thickness": 3114,
      "environ": 3115,
      "related": 3116,
      "reac": 3117,
      "standard": 3118,
      "amount": 3119,
      "##ten": 3120,
      "particle": 3121,
      "##itud": 3122,
      "##osph": 3123,
      "##ulf": 3124,
      "##ained": 3125,
      "difference": 3126,
      "mixture": 3127,
      "silic": 3128,
      "##ling": 3129,
      "##eloc": 3130,
      "anti": 3131,
      "atoms": 3132,
      "At": 3133,
      "##though": 3134,
      "various": 3135,
      "subs": 3136,
      "molecular": 3137,
      "much": 3138,
      "Li": 3139,
      "identif": 3140,
      "paper": 3141,
      "behavior": 3142,
      "displ": 3143,
      "CO": 3144,
      "##upl": 3145,
      "clear": 3146,
      "larger": 3147,
      "##ible": 3148,
      "coupl": 3149,
      "quan": 3150,
      "##red": 3151,
      "##irc": 3152,
      "##ymm": 3153,
      "temperatures": 3154,
      "term": 3155,
      "μm": 3156,
      "22": 3157,
      "On": 3158,
      "models": 3159,
      "content": 3160,
      "##artic": 3161,
      "containing": 3162,
      "##ake": 3163,
      "##itation": 3164,
      "constr": 3165,
      "##inal": 3166,
      "represent": 3167,
      "dri": 3168,
      "##egr": 3169,
      "simul": 3170,
      "expl": 3171,
      "ach": 3172,
      "##ces": 3173,
      "need": 3174,
      "efficiency": 3175,
      "Thus": 3176,
      "good": 3177,
      "absorption": 3178,
      "##ier": 3179,
      "cross": 3180,
      "electrode": 3181,
      "studied": 3182,
      "##oid": 3183,
      "composition": 3184,
      "##ma": 3185,
      "##ule": 3186,
      "achie": 3187,
      "several": 3188,
      "##eed": 3189,
      "thus": 3190,
      "part": 3191,
      "##ances": 3192,
      "shif": 3193,
      "##ions": 3194,
      "shap": 3195,
      "##MS": 3196,
      "nanop": 3197,
      "concentrations": 3198,
      "##olved": 3199,
      "relative": 3200,
      "treatment": 3201,
      "veloc": 3202,
      "##urn": 3203,
      "cm−1": 3204,
      "uni": 3205,
      "fraction": 3206,
      "cent": 3207,
      "##tice": 3208,
      "##ograph": 3209,
      "example": 3210,
      "volt": 3211,
      "##az": 3212,
      "reduced": 3213,
      "contr": 3214,
      "inst": 3215,
      "contin": 3216,
      "H2": 3217,
      "refer": 3218,
      "Ag": 3219,
      "substrate": 3220,
      "##ably": 3221,
      "prof": 3222,
      "decrease": 3223,
      "##app": 3224,
      "##ality": 3225,
      "times": 3226,
      "strain": 3227,
      "significantly": 3228,
      "even": 3229,
      "##des": 3230,
      "intensity": 3231,
      "resist": 3232,
      "##uration": 3233,
      "After": 3234,
      "investigated": 3235,
      "##ving": 3236,
      "lig": 3237,
      "##cept": 3238,
      "formed": 3239,
      "ax": 3240,
      "##itive": 3241,
      "rele": 3242,
      "diss": 3243,
      "production": 3244,
      "60": 3245,
      "##aj": 3246,
      "##put": 3247,
      "carried": 3248,
      "adsorption": 3249,
      "factor": 3250,
      "eth": 3251,
      "##ification": 3252,
      "like": 3253,
      "particular": 3254,
      "CD": 3255,
      "##tions": 3256,
      "magn": 3257,
      "spin": 3258,
      "nuc": 3259,
      "environment": 3260,
      "##ian": 3261,
      "##led": 3262,
      "wa": 3263,
      "##ison": 3264,
      "seen": 3265,
      "organic": 3266,
      "polar": 3267,
      "states": 3268,
      "##11": 3269,
      "four": 3270,
      "developed": 3271,
      "response": 3272,
      "cost": 3273,
      "strength": 3274,
      "resid": 3275,
      "known": 3276,
      "sum": 3277,
      "defined": 3278,
      "##reg": 3279,
      "around": 3280,
      "##ears": 3281,
      "##pper": 3282,
      "##cer": 3283,
      "sensi": 3284,
      "signal": 3285,
      "product": 3286,
      "associated": 3287,
      "added": 3288,
      "resulting": 3289,
      "equation": 3290,
      "surf": 3291,
      "oxidation": 3292,
      "aut": 3293,
      "lit": 3294,
      "##less": 3295,
      "discus": 3296,
      "##ven": 3297,
      "crystal": 3298,
      "##tributed": 3299,
      "loss": 3300,
      "integr": 3301,
      "ligand": 3302,
      "Ch": 3303,
      "effective": 3304,
      "top": 3305,
      "##ish": 3306,
      "dynamic": 3307,
      "had": 3308,
      "##atis": 3309,
      "spectrum": 3310,
      "proced": 3311,
      "ele": 3312,
      "23": 3313,
      "solutions": 3314,
      "##ided": 3315,
      "##ching": 3316,
      "29": 3317,
      "##ydr": 3318,
      "expected": 3319,
      "ful": 3320,
      "normal": 3321,
      "##cence": 3322,
      "levels": 3323,
      "##lust": 3324,
      "peaks": 3325,
      "refl": 3326,
      "##copy": 3327,
      "compos": 3328,
      "eV": 3329,
      "##enz": 3330,
      "including": 3331,
      "sites": 3332,
      "##to": 3333,
      "caus": 3334,
      "Further": 3335,
      "since": 3336,
      "##ets": 3337,
      "many": 3338,
      "##anes": 3339,
      "coord": 3340,
      "##ying": 3341,
      "dop": 3342,
      "mode": 3343,
      "path": 3344,
      "##bility": 3345,
      "28": 3346,
      "##ode": 3347,
      "star": 3348,
      "mechanism": 3349,
      "##truct": 3350,
      "nanopartic": 3351,
      "por": 3352,
      "##Hz": 3353,
      "21": 3354,
      "CO2": 3355,
      "hand": 3356,
      "therm": 3357,
      "general": 3358,
      "processes": 3359,
      "being": 3360,
      "##ron": 3361,
      "detail": 3362,
      "##ished": 3363,
      "accur": 3364,
      "##inc": 3365,
      "scale": 3366,
      "consist": 3367,
      "transp": 3368,
      "complet": 3369,
      "diffusion": 3370,
      "room": 3371,
      "##ty": 3372,
      "information": 3373,
      "stability": 3374,
      "##ived": 3375,
      "parameter": 3376,
      "##vant": 3377,
      "membrane": 3378,
      "tar": 3379,
      "below": 3380,
      "##NT": 3381,
      "wid": 3382,
      "controll": 3383,
      "wave": 3384,
      "##ethyl": 3385,
      "est": 3386,
      "velocity": 3387,
      "orig": 3388,
      "cataly": 3389,
      "glass": 3390,
      "geom": 3391,
      "Sc": 3392,
      "phosph": 3393,
      "interface": 3394,
      "active": 3395,
      "Pt": 3396,
      "avail": 3397,
      "More": 3398,
      "real": 3399,
      "##ning": 3400,
      "confir": 3401,
      "All": 3402,
      "introduc": 3403,
      "according": 3404,
      "##gor": 3405,
      "made": 3406,
      "PE": 3407,
      "##SA": 3408,
      "back": 3409,
      "ear": 3410,
      "PC": 3411,
      "comparison": 3412,
      "clust": 3413,
      "reve": 3414,
      "induced": 3415,
      "##urb": 3416,
      "##con": 3417,
      "##electr": 3418,
      "##ason": 3419,
      "poly": 3420,
      "cer": 3421,
      "sens": 3422,
      "##umn": 3423,
      "err": 3424,
      "##af": 3425,
      "##sp": 3426,
      "##etwork": 3427,
      "##val": 3428,
      "##omer": 3429,
      "resear": 3430,
      "terms": 3431,
      "beam": 3432,
      "del": 3433,
      "fit": 3434,
      "##ased": 3435,
      "fib": 3436,
      "before": 3437,
      "does": 3438,
      "interactions": 3439,
      "##etter": 3440,
      "acet": 3441,
      "##itude": 3442,
      "via": 3443,
      "##try": 3444,
      "MS": 3445,
      "ret": 3446,
      "##oph": 3447,
      "spectro": 3448,
      "00": 3449,
      "##Ps": 3450,
      "source": 3451,
      "##ither": 3452,
      "2H": 3453,
      "##vers": 3454,
      "observ": 3455,
      "##ables": 3456,
      "alk": 3457,
      "##OH": 3458,
      "continu": 3459,
      "network": 3460,
      "complexes": 3461,
      "products": 3462,
      "##ogen": 3463,
      "circ": 3464,
      "prom": 3465,
      "allo": 3466,
      "##CH": 3467,
      "influence": 3468,
      "problem": 3469,
      "optical": 3470,
      "##pm": 3471,
      "##apor": 3472,
      "cases": 3473,
      "las": 3474,
      "ray": 3475,
      "thin": 3476,
      "plot": 3477,
      "##rogen": 3478,
      "##aled": 3479,
      "chann": 3480,
      "oxide": 3481,
      "##here": 3482,
      "numer": 3483,
      "protein": 3484,
      "angle": 3485,
      "cool": 3486,
      "suc": 3487,
      "resistance": 3488,
      "column": 3489,
      "synthesis": 3490,
      "inhib": 3491,
      "here": 3492,
      "When": 3493,
      "bar": 3494,
      "applications": 3495,
      "diameter": 3496,
      "bul": 3497,
      "prim": 3498,
      "off": 3499,
      "fluid": 3500,
      "drop": 3501,
      "disper": 3502,
      "Au": 3503,
      "##20": 3504,
      "smaller": 3505,
      "components": 3506,
      "##osp": 3507,
      "binding": 3508,
      "amp": 3509,
      "sequ": 3510,
      "ed": 3511,
      "St": 3512,
      "##ices": 3513,
      "distance": 3514,
      "side": 3515,
      "pul": 3516,
      "reactions": 3517,
      "layers": 3518,
      "react": 3519,
      "##inated": 3520,
      "lat": 3521,
      "plane": 3522,
      "35": 3523,
      "rot": 3524,
      "functional": 3525,
      "coefficient": 3526,
      "again": 3527,
      "Ar": 3528,
      "unit": 3529,
      "##ner": 3530,
      "hum": 3531,
      "structural": 3532,
      "##PS": 3533,
      "mmol": 3534,
      "sal": 3535,
      "improve": 3536,
      "##iss": 3537,
      "80": 3538,
      "boundary": 3539,
      "##hip": 3540,
      "depos": 3541,
      "force": 3542,
      "stre": 3543,
      "expression": 3544,
      "Mn": 3545,
      "site": 3546,
      "emplo": 3547,
      "solvent": 3548,
      "##abil": 3549,
      "fer": 3550,
      "199": 3551,
      "##ew": 3552,
      "stable": 3553,
      "therefore": 3554,
      "kine": 3555,
      "relatively": 3556,
      "target": 3557,
      "##ogene": 3558,
      "##line": 3559,
      "hy": 3560,
      "provide": 3561,
      "coun": 3562,
      "##utr": 3563,
      "element": 3564,
      "capacity": 3565,
      "##me": 3566,
      "voltage": 3567,
      "##ially": 3568,
      "##ings": 3569,
      "##ajor": 3570,
      "sulf": 3571,
      "however": 3572,
      "diffr": 3573,
      "required": 3574,
      "phys": 3575,
      "##ication": 3576,
      "27": 3577,
      "plas": 3578,
      "vac": 3579,
      "better": 3580,
      "nanoparticles": 3581,
      "26": 3582,
      "##erc": 3583,
      "bulk": 3584,
      "conv": 3585,
      "contact": 3586,
      "300": 3587,
      "space": 3588,
      "slight": 3589,
      "rates": 3590,
      "equil": 3591,
      "electric": 3592,
      "crack": 3593,
      "available": 3594,
      "##ily": 3595,
      "##xt": 3596,
      "Me": 3597,
      "Ga": 3598,
      "##Cs": 3599,
      "transport": 3600,
      "eas": 3601,
      "TiO2": 3602,
      "##umin": 3603,
      "##ending": 3604,
      "agree": 3605,
      "weight": 3606,
      "Mg": 3607,
      "assum": 3608,
      "development": 3609,
      "##of": 3610,
      "correspond": 3611,
      "##arm": 3612,
      "##ressed": 3613,
      "wall": 3614,
      "##ritical": 3615,
      "nucle": 3616,
      "##ather": 3617,
      "positive": 3618,
      "##heme": 3619,
      "substit": 3620,
      "produced": 3621,
      "major": 3622,
      "##ffer": 3623,
      "##aling": 3624,
      "##cos": 3625,
      "sw": 3626,
      "chlor": 3627,
      "##gorith": 3628,
      "morph": 3629,
      "##itor": 3630,
      "procedure": 3631,
      "mes": 3632,
      "calculations": 3633,
      "att": 3634,
      "intr": 3635,
      "##anced": 3636,
      "pure": 3637,
      "deg": 3638,
      "relations": 3639,
      "31": 3640,
      "##omes": 3641,
      "imm": 3642,
      "rad": 3643,
      "##ening": 3644,
      "conclu": 3645,
      "ke": 3646,
      "dependent": 3647,
      "##sc": 3648,
      "coating": 3649,
      "##medi": 3650,
      "##ses": 3651,
      "short": 3652,
      "previously": 3653,
      "highly": 3654,
      "##ady": 3655,
      "chrom": 3656,
      "##cent": 3657,
      "##ulated": 3658,
      "contribution": 3659,
      "33": 3660,
      "bro": 3661,
      "32": 3662,
      "characteristics": 3663,
      "##art": 3664,
      "##ero": 3665,
      "orient": 3666,
      "##ists": 3667,
      "90": 3668,
      "tub": 3669,
      "either": 3670,
      "factors": 3671,
      "close": 3672,
      "laser": 3673,
      "oil": 3674,
      "summ": 3675,
      "config": 3676,
      "evid": 3677,
      "negative": 3678,
      "##co": 3679,
      "hom": 3680,
      "down": 3681,
      "role": 3682,
      "##ising": 3683,
      "inj": 3684,
      "indicates": 3685,
      "##sem": 3686,
      "Ca": 3687,
      "fluores": 3688,
      "limit": 3689,
      "series": 3690,
      "fac": 3691,
      "deriv": 3692,
      "##2O3": 3693,
      "specim": 3694,
      "##ended": 3695,
      "den": 3696,
      "##ibri": 3697,
      "agg": 3698,
      "algorith": 3699,
      "exch": 3700,
      "kinetic": 3701,
      "symm": 3702,
      "stor": 3703,
      "points": 3704,
      "weak": 3705,
      "##ank": 3706,
      "deposition": 3707,
      "lab": 3708,
      "##bit": 3709,
      "exam": 3710,
      "electronic": 3711,
      "OH": 3712,
      "still": 3713,
      "##pec": 3714,
      "##ised": 3715,
      "sem": 3716,
      "buil": 3717,
      "measurement": 3718,
      "45": 3719,
      "shape": 3720,
      "technique": 3721,
      "PA": 3722,
      "surfaces": 3723,
      "NH": 3724,
      "Comp": 3725,
      "taken": 3726,
      "curves": 3727,
      "curve": 3728,
      "simulation": 3729,
      "whereas": 3730,
      "Con": 3731,
      "underst": 3732,
      "conductivity": 3733,
      "##ety": 3734,
      "##onal": 3735,
      "37": 3736,
      "component": 3737,
      "means": 3738,
      "lattice": 3739,
      "act": 3740,
      "follows": 3741,
      "estimated": 3742,
      "nec": 3743,
      "Cr": 3744,
      "spectros": 3745,
      "conn": 3746,
      "flux": 3747,
      "methyl": 3748,
      "Moreover": 3749,
      "ul": 3750,
      "differences": 3751,
      "##most": 3752,
      "core": 3753,
      "##tives": 3754,
      "toward": 3755,
      "irr": 3756,
      "common": 3757,
      "##orded": 3758,
      "IR": 3759,
      "##ibrium": 3760,
      "##gest": 3761,
      "##13": 3762,
      "With": 3763,
      "contrast": 3764,
      "##electric": 3765,
      "UV": 3766,
      "##grad": 3767,
      "70": 3768,
      "sit": 3769,
      "correlation": 3770,
      "##ivid": 3771,
      "##MA": 3772,
      "##ept": 3773,
      "foc": 3774,
      "generated": 3775,
      "nitrogen": 3776,
      "wind": 3777,
      "##ote": 3778,
      "##arb": 3779,
      "link": 3780,
      "consistent": 3781,
      "##queous": 3782,
      "scatter": 3783,
      "electroc": 3784,
      "Since": 3785,
      "mechanical": 3786,
      "approximately": 3787,
      "demonstrated": 3788,
      "##ans": 3789,
      "filter": 3790,
      "elements": 3791,
      "##more": 3792,
      "##char": 3793,
      "class": 3794,
      "##atures": 3795,
      "vibr": 3796,
      "##lished": 3797,
      "critical": 3798,
      "##verse": 3799,
      "synthesi": 3800,
      "500": 3801,
      "cover": 3802,
      "nat": 3803,
      "##assi": 3804,
      "speed": 3805,
      "ampl": 3806,
      "coupling": 3807,
      "situ": 3808,
      "determine": 3809,
      "derived": 3810,
      "##yt": 3811,
      "##rip": 3812,
      "##ision": 3813,
      "followed": 3814,
      "##epend": 3815,
      "ml": 3816,
      "agreement": 3817,
      "aqueous": 3818,
      "##aced": 3819,
      "From": 3820,
      "research": 3821,
      "##erature": 3822,
      "adj": 3823,
      "Although": 3824,
      "decreases": 3825,
      "##omb": 3826,
      "individ": 3827,
      "hydrox": 3828,
      "34": 3829,
      "reason": 3830,
      "decreased": 3831,
      "##hene": 3832,
      "##ously": 3833,
      "depth": 3834,
      "##yed": 3835,
      "wt": 3836,
      "application": 3837,
      "##Cl3": 3838,
      "Mo": 3839,
      "dou": 3840,
      "grain": 3841,
      "400": 3842,
      "##ining": 3843,
      "DNA": 3844,
      "them": 3845,
      "##RD": 3846,
      "lif": 3847,
      "mainly": 3848,
      "block": 3849,
      "reference": 3850,
      "sat": 3851,
      "ppm": 3852,
      "way": 3853,
      "equilibrium": 3854,
      "##SI": 3855,
      "Furthermore": 3856,
      "fuel": 3857,
      "mark": 3858,
      "Cl": 3859,
      "Bi": 3860,
      "##atory": 3861,
      "Br": 3862,
      "modified": 3863,
      "##sequently": 3864,
      "precip": 3865,
      "diffraction": 3866,
      "##aps": 3867,
      "zero": 3868,
      "medium": 3869,
      "36": 3870,
      "fix": 3871,
      "degrad": 3872,
      "75": 3873,
      "##tically": 3874,
      "variation": 3875,
      "MHz": 3876,
      "tetr": 3877,
      "##abric": 3878,
      "heating": 3879,
      "##bal": 3880,
      "99": 3881,
      "simple": 3882,
      "##acted": 3883,
      "ground": 3884,
      "##acy": 3885,
      "##ope": 3886,
      "conversion": 3887,
      "detection": 3888,
      "functions": 3889,
      "hel": 3890,
      "resolution": 3891,
      "independ": 3892,
      "##umption": 3893,
      "images": 3894,
      "relationship": 3895,
      "05": 3896,
      "dependence": 3897,
      "mom": 3898,
      "pyr": 3899,
      "##ires": 3900,
      "adsorb": 3901,
      "centr": 3902,
      "few": 3903,
      "electroly": 3904,
      "##otrop": 3905,
      "##zym": 3906,
      "If": 3907,
      "dimensional": 3908,
      "##aining": 3909,
      "il": 3910,
      "indicated": 3911,
      "intern": 3912,
      "catalysts": 3913,
      "respect": 3914,
      "theore": 3915,
      "phases": 3916,
      "##ateg": 3917,
      "theory": 3918,
      "##amm": 3919,
      "Section": 3920,
      "additional": 3921,
      "equiv": 3922,
      "focus": 3923,
      "types": 3924,
      "arr": 3925,
      "shear": 3926,
      "indicate": 3927,
      "##ott": 3928,
      "hal": 3929,
      "discussed": 3930,
      "util": 3931,
      "##ged": 3932,
      "reson": 3933,
      "transm": 3934,
      "##resh": 3935,
      "irradi": 3936,
      "impact": 3937,
      "attributed": 3938,
      "mel": 3939,
      "achieved": 3940,
      "molecule": 3941,
      "fabric": 3942,
      "hard": 3943,
      "features": 3944,
      "must": 3945,
      "final": 3946,
      "wavel": 3947,
      "treated": 3948,
      "tun": 3949,
      "##och": 3950,
      "multip": 3951,
      "heter": 3952,
      "CH2": 3953,
      "##ques": 3954,
      "##izes": 3955,
      "##−2": 3956,
      "indicating": 3957,
      "##inally": 3958,
      "soil": 3959,
      "axis": 3960,
      "directly": 3961,
      "chain": 3962,
      "pair": 3963,
      "leads": 3964,
      "broad": 3965,
      "separation": 3966,
      "##ok": 3967,
      "basis": 3968,
      "plate": 3969,
      "center": 3970,
      "selected": 3971,
      "Su": 3972,
      "necess": 3973,
      "##izing": 3974,
      "equations": 3975,
      "literature": 3976,
      "progr": 3977,
      "neutr": 3978,
      "##II": 3979,
      "MP": 3980,
      "##15": 3981,
      "obj": 3982,
      "typical": 3983,
      "recorded": 3984,
      "error": 3985,
      "might": 3986,
      "illu": 3987,
      "composite": 3988,
      "almost": 3989,
      "Pd": 3990,
      "ep": 3991,
      "regions": 3992,
      "atm": 3993,
      "illustr": 3994,
      "rap": 3995,
      "Ph": 3996,
      "assess": 3997,
      "Figs": 3998,
      "diag": 3999,
      "cre": 4000,
      "##aving": 4001,
      "image": 4002,
      "gel": 4003,
      "##iver": 4004,
      "##kely": 4005,
      "stage": 4006,
      "##crip": 4007,
      "cycle": 4008,
      "greater": 4009,
      "Acc": 4010,
      "partial": 4011,
      "did": 4012,
      "invol": 4013,
      "##isms": 4014,
      "hex": 4015,
      "ring": 4016,
      "slightly": 4017,
      "shift": 4018,
      "##pol": 4019,
      "mixed": 4020,
      "quality": 4021,
      "##ino": 4022,
      "simulations": 4023,
      "remov": 4024,
      "##inate": 4025,
      "##encies": 4026,
      "##semb": 4027,
      "pop": 4028,
      "##ectrom": 4029,
      "best": 4030,
      "numerical": 4031,
      "clearly": 4032,
      "##TA": 4033,
      "occurs": 4034,
      "provided": 4035,
      "##erm": 4036,
      "account": 4037,
      "##hest": 4038,
      "natural": 4039,
      "##ayer": 4040,
      "soft": 4041,
      "synthesized": 4042,
      "rapid": 4043,
      "##orts": 4044,
      "quantit": 4045,
      "hydr": 4046,
      "##ton": 4047,
      "##SC": 4048,
      "loading": 4049,
      "mM": 4050,
      "equal": 4051,
      "slow": 4052,
      "base": 4053,
      "##ectivity": 4054,
      "##14": 4055,
      "anne": 4056,
      "tests": 4057,
      "minim": 4058,
      "48": 4059,
      "generation": 4060,
      "mak": 4061,
      "uniform": 4062,
      "analyzed": 4063,
      "##ortion": 4064,
      "identified": 4065,
      "##brid": 4066,
      "##omen": 4067,
      "pore": 4068,
      "##esting": 4069,
      "techniques": 4070,
      "enzym": 4071,
      "areas": 4072,
      "least": 4073,
      "understand": 4074,
      "aggreg": 4075,
      "rang": 4076,
      "##acement": 4077,
      "feed": 4078,
      "limited": 4079,
      "##ols": 4080,
      "##lying": 4081,
      "fail": 4082,
      "CH3": 4083,
      "biom": 4084,
      "overall": 4085,
      "electrochemical": 4086,
      "activation": 4087,
      "enhance": 4088,
      "wavelength": 4089,
      "Sim": 4090,
      "domain": 4091,
      "add": 4092,
      "among": 4093,
      "channel": 4094,
      "III": 4095,
      "Wh": 4096,
      "##orpor": 4097,
      "##isting": 4098,
      "evolution": 4099,
      "upon": 4100,
      "Un": 4101,
      "estab": 4102,
      "physical": 4103,
      "full": 4104,
      "plasma": 4105,
      "prac": 4106,
      "benz": 4107,
      "highest": 4108,
      "##iment": 4109,
      "catalytic": 4110,
      "Ex": 4111,
      "nanoc": 4112,
      "recover": 4113,
      "##land": 4114,
      "rather": 4115,
      "##PA": 4116,
      "Here": 4117,
      "##inant": 4118,
      "require": 4119,
      "exchange": 4120,
      "##uter": 4121,
      "##inity": 4122,
      "##li": 4123,
      "width": 4124,
      "nature": 4125,
      "indus": 4126,
      "##andom": 4127,
      "algorithm": 4128,
      "caused": 4129,
      "isol": 4130,
      "##oin": 4131,
      "employed": 4132,
      "atmosp": 4133,
      "patterns": 4134,
      "fixed": 4135,
      "diffic": 4136,
      "subj": 4137,
      "Ad": 4138,
      "run": 4139,
      "collected": 4140,
      "decomp": 4141,
      "gap": 4142,
      "PL": 4143,
      "##entional": 4144,
      "life": 4145,
      "powder": 4146,
      "##antum": 4147,
      "years": 4148,
      "characterized": 4149,
      "support": 4150,
      "energies": 4151,
      "solar": 4152,
      "##not": 4153,
      "strateg": 4154,
      "deformation": 4155,
      "devices": 4156,
      "frame": 4157,
      "fluorescence": 4158,
      "success": 4159,
      "##22": 4160,
      "internal": 4161,
      "##way": 4162,
      "valid": 4163,
      "device": 4164,
      "self": 4165,
      "alumin": 4166,
      "silica": 4167,
      "spectroscopy": 4168,
      "detected": 4169,
      "cle": 4170,
      "controlled": 4171,
      "##und": 4172,
      "bre": 4173,
      "tested": 4174,
      "##aries": 4175,
      "crystals": 4176,
      "By": 4177,
      "Then": 4178,
      "relax": 4179,
      "##ography": 4180,
      "XRD": 4181,
      "##ij": 4182,
      "##ody": 4183,
      "MA": 4184,
      "##active": 4185,
      "random": 4186,
      "assemb": 4187,
      "bands": 4188,
      "construc": 4189,
      "According": 4190,
      "ultr": 4191,
      "theoretical": 4192,
      "devi": 4193,
      "likely": 4194,
      "assumed": 4195,
      "##bers": 4196,
      "give": 4197,
      "graph": 4198,
      "H2O": 4199,
      "##ogeneous": 4200,
      "##ES": 4201,
      "drug": 4202,
      "38": 4203,
      "lines": 4204,
      "degradation": 4205,
      "##olec": 4206,
      "enhanced": 4207,
      "degree": 4208,
      "##ones": 4209,
      "stirr": 4210,
      "intermedi": 4211,
      "##60": 4212,
      "##°C": 4213,
      "dam": 4214,
      "##30": 4215,
      "PV": 4216,
      "zone": 4217,
      "fa": 4218,
      "##ern": 4219,
      "altern": 4220,
      "scattering": 4221,
      "##anning": 4222,
      "##aphene": 4223,
      "##alent": 4224,
      "##OS": 4225,
      "prepar": 4226,
      "##fact": 4227,
      "minimum": 4228,
      "located": 4229,
      "Tr": 4230,
      "##allel": 4231,
      "proj": 4232,
      "nanos": 4233,
      "O2": 4234,
      "independent": 4235,
      "excitation": 4236,
      "provides": 4237,
      "against": 4238,
      "##iles": 4239,
      "conducted": 4240,
      "appear": 4241,
      "fract": 4242,
      "##CA": 4243,
      "quantum": 4244,
      "##ways": 4245,
      "##atial": 4246,
      "comput": 4247,
      "##lig": 4248,
      "##alled": 4249,
      "##ryst": 4250,
      "sed": 4251,
      "One": 4252,
      "efficient": 4253,
      "radiation": 4254,
      "evaluated": 4255,
      "becomes": 4256,
      "exist": 4257,
      "vary": 4258,
      "days": 4259,
      "cannot": 4260,
      "##LC": 4261,
      "mac": 4262,
      "##iew": 4263,
      "possi": 4264,
      "##ecting": 4265,
      "deposited": 4266,
      "##rete": 4267,
      "##acts": 4268,
      "They": 4269,
      "trend": 4270,
      "edge": 4271,
      "incorpor": 4272,
      "individual": 4273,
      "##mon": 4274,
      "assign": 4275,
      "variables": 4276,
      "human": 4277,
      "squ": 4278,
      "fill": 4279,
      "electrons": 4280,
      "later": 4281,
      "index": 4282,
      "bott": 4283,
      "phenomen": 4284,
      "steel": 4285,
      "photoc": 4286,
      "95": 4287,
      "eng": 4288,
      "electrical": 4289,
      "##ior": 4290,
      "SA": 4291,
      "Cd": 4292,
      "modes": 4293,
      "gradi": 4294,
      "000": 4295,
      "conventional": 4296,
      "bonds": 4297,
      "elastic": 4298,
      "spatial": 4299,
      "graphene": 4300,
      "CA": 4301,
      "01": 4302,
      "Finally": 4303,
      "moment": 4304,
      "shell": 4305,
      "enc": 4306,
      "hybrid": 4307,
      "post": 4308,
      "##ators": 4309,
      "cooling": 4310,
      "input": 4311,
      "morphology": 4312,
      "monitor": 4313,
      "##itable": 4314,
      "advant": 4315,
      "##oxy": 4316,
      "although": 4317,
      "##BS": 4318,
      "cluster": 4319,
      "PS": 4320,
      "##pre": 4321,
      "removal": 4322,
      "##ks": 4323,
      "##urs": 4324,
      "##rior": 4325,
      "improved": 4326,
      "##ensities": 4327,
      "##tle": 4328,
      "PD": 4329,
      "log": 4330,
      "reduce": 4331,
      "##agnetic": 4332,
      "##ams": 4333,
      "##certain": 4334,
      "primary": 4335,
      "sin": 4336,
      "##sions": 4337,
      "##ceed": 4338,
      "wide": 4339,
      "strongly": 4340,
      "electrodes": 4341,
      "55": 4342,
      "chem": 4343,
      "transform": 4344,
      "profile": 4345,
      "statis": 4346,
      "##pecially": 4347,
      "vacu": 4348,
      "orbit": 4349,
      "##CP": 4350,
      "leading": 4351,
      "stabil": 4352,
      "parallel": 4353,
      "dynamics": 4354,
      "##iter": 4355,
      "great": 4356,
      "especially": 4357,
      "doped": 4358,
      "glo": 4359,
      "##tiz": 4360,
      "ZnO": 4361,
      "pack": 4362,
      "photo": 4363,
      "ethanol": 4364,
      "##isted": 4365,
      "coefficients": 4366,
      "Res": 4367,
      "necessary": 4368,
      "gu": 4369,
      "interf": 4370,
      "##hydro": 4371,
      "SEM": 4372,
      "configuration": 4373,
      "barri": 4374,
      "magnitude": 4375,
      "##aging": 4376,
      "combination": 4377,
      "buffer": 4378,
      "another": 4379,
      "##eration": 4380,
      "difficult": 4381,
      "3H": 4382,
      "maintain": 4383,
      "dischar": 4384,
      "how": 4385,
      "hol": 4386,
      "geometry": 4387,
      "expressed": 4388,
      "##entioned": 4389,
      "gly": 4390,
      "dried": 4391,
      "##allic": 4392,
      "##omic": 4393,
      "view": 4394,
      "Am": 4395,
      "Supp": 4396,
      "wor": 4397,
      "recent": 4398,
      "know": 4399,
      "##Si": 4400,
      "Ref": 4401,
      "##40": 4402,
      "confirmed": 4403,
      "cut": 4404,
      "sensitivity": 4405,
      "##rosion": 4406,
      "Pro": 4407,
      "Ind": 4408,
      "fo": 4409,
      "evapor": 4410,
      "appar": 4411,
      "extern": 4412,
      "##sing": 4413,
      "##odium": 4414,
      "find": 4415,
      "atomic": 4416,
      "output": 4417,
      "interest": 4418,
      "double": 4419,
      "accuracy": 4420,
      "##Cl2": 4421,
      "##16": 4422,
      "13C": 4423,
      "##pr": 4424,
      "42": 4425,
      "##ropri": 4426,
      "##PC": 4427,
      "hydroph": 4428,
      "lip": 4429,
      "##tor": 4430,
      "sil": 4431,
      "39": 4432,
      "yields": 4433,
      "##18": 4434,
      "represents": 4435,
      "produce": 4436,
      "kg": 4437,
      "dil": 4438,
      "##atives": 4439,
      "methanol": 4440,
      "suggested": 4441,
      "dy": 4442,
      "modul": 4443,
      "##incip": 4444,
      "turn": 4445,
      "##alog": 4446,
      "far": 4447,
      "##ae": 4448,
      "optimal": 4449,
      "generally": 4450,
      "behaviour": 4451,
      "complete": 4452,
      "open": 4453,
      "copper": 4454,
      "often": 4455,
      "##erv": 4456,
      "##DS": 4457,
      "##epti": 4458,
      "##osure": 4459,
      "multiple": 4460,
      "##FT": 4461,
      "Se": 4462,
      "alloy": 4463,
      "##obic": 4464,
      "##pped": 4465,
      "Sn": 4466,
      "NO": 4467,
      "units": 4468,
      "ve": 4469,
      "operation": 4470,
      "reactor": 4471,
      "certain": 4472,
      "suffici": 4473,
      "chromat": 4474,
      "susp": 4475,
      "predicted": 4476,
      "##osen": 4477,
      "##ze": 4478,
      "##ounts": 4479,
      "revealed": 4480,
      "successful": 4481,
      "##ometer": 4482,
      "left": 4483,
      "##iting": 4484,
      "day": 4485,
      "extraction": 4486,
      "10−": 4487,
      "suggests": 4488,
      "uncertain": 4489,
      "ratios": 4490,
      "Our": 4491,
      "##ler": 4492,
      "vector": 4493,
      "usually": 4494,
      "seem": 4495,
      "##CC": 4496,
      "##ots": 4497,
      "upper": 4498,
      "introduced": 4499,
      "calculation": 4500,
      "continuous": 4501,
      "##ont": 4502,
      "precurs": 4503,
      "electrolyte": 4504,
      "##oxide": 4505,
      "external": 4506,
      "princip": 4507,
      "suggest": 4508,
      "subst": 4509,
      "environmental": 4510,
      "CDCl3": 4511,
      "##enti": 4512,
      "proteins": 4513,
      "##ring": 4514,
      "C2": 4515,
      "Similar": 4516,
      "ide": 4517,
      "iron": 4518,
      "substrates": 4519,
      "##iding": 4520,
      "exhibit": 4521,
      "ability": 4522,
      "appropri": 4523,
      "radical": 4524,
      "right": 4525,
      "##any": 4526,
      "##As": 4527,
      "rough": 4528,
      "##PE": 4529,
      "release": 4530,
      "gene": 4531,
      "DM": 4532,
      "##tructure": 4533,
      "150": 4534,
      "65": 4535,
      "five": 4536,
      "turb": 4537,
      "##ologies": 4538,
      "impl": 4539,
      "steps": 4540,
      "tube": 4541,
      "absorb": 4542,
      "combined": 4543,
      "allows": 4544,
      "spectral": 4545,
      "##tered": 4546,
      "##ument": 4547,
      "inside": 4548,
      "signals": 4549,
      "suitable": 4550,
      "waste": 4551,
      "analyses": 4552,
      "##ime": 4553,
      "perme": 4554,
      "investigate": 4555,
      "##gether": 4556,
      "together": 4557,
      "FT": 4558,
      "height": 4559,
      "auth": 4560,
      "##ware": 4561,
      "implement": 4562,
      "chosen": 4563,
      "seg": 4564,
      "vers": 4565,
      "across": 4566,
      "ess": 4567,
      "onto": 4568,
      "##amine": 4569,
      "depends": 4570,
      "spectrom": 4571,
      "towards": 4572,
      "##work": 4573,
      "ethyl": 4574,
      "building": 4575,
      "##Fe": 4576,
      "bottom": 4577,
      "mechanisms": 4578,
      "pub": 4579,
      "storage": 4580,
      "##CO": 4581,
      "##ird": 4582,
      "remo": 4583,
      "repl": 4584,
      "corresponds": 4585,
      "##aff": 4586,
      "plant": 4587,
      "##omm": 4588,
      "finding": 4589,
      "##hedr": 4590,
      "##ET": 4591,
      "TEM": 4592,
      "fav": 4593,
      "##olecular": 4594,
      "##cal": 4595,
      "−1": 4596,
      "43": 4597,
      "crystalline": 4598,
      "plastic": 4599,
      "irradiation": 4600,
      "He": 4601,
      "##uts": 4602,
      "prefer": 4603,
      "fields": 4604,
      "initi": 4605,
      "sequence": 4606,
      "##omers": 4607,
      "half": 4608,
      "##wise": 4609,
      "##GA": 4610,
      "problems": 4611,
      "make": 4612,
      "included": 4613,
      "until": 4614,
      "break": 4615,
      "ionic": 4616,
      "##IS": 4617,
      "ligands": 4618,
      "repe": 4619,
      "prior": 4620,
      "##iction": 4621,
      "02": 4622,
      "easily": 4623,
      "Eu": 4624,
      "##IR": 4625,
      "##ging": 4626,
      "44": 4627,
      "##ense": 4628,
      "pass": 4629,
      "noted": 4630,
      "##scill": 4631,
      "PM": 4632,
      "variable": 4633,
      "display": 4634,
      "gives": 4635,
      "tiss": 4636,
      "##aster": 4637,
      "ris": 4638,
      "grid": 4639,
      "proton": 4640,
      "##odes": 4641,
      "##Al": 4642,
      "Rec": 4643,
      "ESI": 4644,
      "finite": 4645,
      "specimens": 4646,
      "HP": 4647,
      "vacuum": 4648,
      "cho": 4649,
      "47": 4650,
      "essential": 4651,
      "place": 4652,
      "include": 4653,
      "##copic": 4654,
      "equivalent": 4655,
      "commerc": 4656,
      "##ead": 4657,
      "proportion": 4658,
      "preparation": 4659,
      "approac": 4660,
      "analytical": 4661,
      "involved": 4662,
      "having": 4663,
      "cath": 4664,
      "nitr": 4665,
      "able": 4666,
      "percent": 4667,
      "##lementary": 4668,
      "Scheme": 4669,
      "oscill": 4670,
      "silicon": 4671,
      "##ef": 4672,
      "##assif": 4673,
      "displacement": 4674,
      "key": 4675,
      "Ce": 4676,
      "##oxyl": 4677,
      "go": 4678,
      "mar": 4679,
      "removed": 4680,
      "contrib": 4681,
      "Tw": 4682,
      "##Ds": 4683,
      "engine": 4684,
      "3D": 4685,
      "whole": 4686,
      "##istry": 4687,
      "##isation": 4688,
      "motion": 4689,
      "profiles": 4690,
      "dissolved": 4691,
      "appropriate": 4692,
      "absence": 4693,
      "now": 4694,
      "##NTs": 4695,
      "clusters": 4696,
      "CF": 4697,
      "intermediate": 4698,
      "orientation": 4699,
      "##CM": 4700,
      "recently": 4701,
      "detailed": 4702,
      "##view": 4703,
      "examined": 4704,
      "hor": 4705,
      "##DA": 4706,
      "probe": 4707,
      "pump": 4708,
      "##aged": 4709,
      "resulted": 4710,
      "don": 4711,
      "opp": 4712,
      "##sequent": 4713,
      "##enced": 4714,
      "operating": 4715,
      "frag": 4716,
      "fully": 4717,
      "tit": 4718,
      "lith": 4719,
      "fast": 4720,
      "##dr": 4721,
      "dry": 4722,
      "become": 4723,
      "cycles": 4724,
      "longer": 4725,
      "latter": 4726,
      "relaxation": 4727,
      "satis": 4728,
      "PP": 4729,
      "coated": 4730,
      "Pb": 4731,
      "coupled": 4732,
      "calibr": 4733,
      "fluor": 4734,
      "formul": 4735,
      "polarization": 4736,
      "che": 4737,
      "Ru": 4738,
      "##loc": 4739,
      "processing": 4740,
      "tend": 4741,
      "decomposition": 4742,
      "porous": 4743,
      "SiO2": 4744,
      "avoid": 4745,
      "polymers": 4746,
      "symmetry": 4747,
      "mentioned": 4748,
      "incub": 4749,
      "Ram": 4750,
      "HR": 4751,
      "##elling": 4752,
      "propag": 4753,
      "useful": 4754,
      "##×10": 4755,
      "purp": 4756,
      "85": 4757,
      "41": 4758,
      "gradient": 4759,
      "damage": 4760,
      "pulse": 4761,
      "attr": 4762,
      "hyp": 4763,
      "El": 4764,
      "evidence": 4765,
      "called": 4766,
      "##CS": 4767,
      "N2": 4768,
      "##MO": 4769,
      "53": 4770,
      "1000": 4771,
      "##ectors": 4772,
      "bonding": 4773,
      "bio": 4774,
      "##tering": 4775,
      "appears": 4776,
      "La": 4777,
      "sensitive": 4778,
      "explained": 4779,
      "sensor": 4780,
      "sodium": 4781,
      "observations": 4782,
      "estimate": 4783,
      "1−": 4784,
      "2D": 4785,
      "tri": 4786,
      "adop": 4787,
      "##ledge": 4788,
      "membranes": 4789,
      "##ultane": 4790,
      "##uture": 4791,
      "transmission": 4792,
      "dispersion": 4793,
      "##icity": 4794,
      "bene": 4795,
      "grad": 4796,
      "##idine": 4797,
      "##80": 4798,
      "amino": 4799,
      "##ensive": 4800,
      "conj": 4801,
      "mill": 4802,
      "injection": 4803,
      "probability": 4804,
      "semic": 4805,
      "52": 4806,
      "noise": 4807,
      "##abol": 4808,
      "##CN": 4809,
      "spher": 4810,
      "##romatic": 4811,
      "consumption": 4812,
      "ster": 4813,
      "stret": 4814,
      "original": 4815,
      "approaches": 4816,
      "though": 4817,
      "demand": 4818,
      "dip": 4819,
      "While": 4820,
      "mut": 4821,
      "visible": 4822,
      "##tures": 4823,
      "secondary": 4824,
      "sources": 4825,
      "flex": 4826,
      "constants": 4827,
      "sk": 4828,
      "##hydr": 4829,
      "##utes": 4830,
      "vertical": 4831,
      "##MP": 4832,
      "reach": 4833,
      "framework": 4834,
      "##ina": 4835,
      "feature": 4836,
      "mixing": 4837,
      "analog": 4838,
      "En": 4839,
      "clos": 4840,
      "observation": 4841,
      "gluc": 4842,
      "accum": 4843,
      "##ders": 4844,
      "placed": 4845,
      "microscopy": 4846,
      "remains": 4847,
      "Zr": 4848,
      "##linear": 4849,
      "##lood": 4850,
      "Sh": 4851,
      "arg": 4852,
      "Hence": 4853,
      "##rup": 4854,
      "##ales": 4855,
      "##ental": 4856,
      "interpre": 4857,
      "No": 4858,
      "discharge": 4859,
      "miner": 4860,
      "##tration": 4861,
      "rich": 4862,
      "##urr": 4863,
      "classif": 4864,
      "iss": 4865,
      "##by": 4866,
      "##ext": 4867,
      "##arch": 4868,
      "trip": 4869,
      "##ics": 4870,
      "CN": 4871,
      "cation": 4872,
      "transformation": 4873,
      "Bec": 4874,
      "##olds": 4875,
      "Raman": 4876,
      "amplitude": 4877,
      "enti": 4878,
      "##atin": 4879,
      "##ask": 4880,
      "prev": 4881,
      "exhibited": 4882,
      "rock": 4883,
      "46": 4884,
      "##ik": 4885,
      "##ER": 4886,
      "accel": 4887,
      "coordination": 4888,
      "##apping": 4889,
      "spl": 4890,
      "color": 4891,
      "Eqs": 4892,
      "selectivity": 4893,
      "dielectric": 4894,
      "isolated": 4895,
      "##lier": 4896,
      "Ge": 4897,
      "##vely": 4898,
      "failure": 4899,
      "global": 4900,
      "summar": 4901,
      "chains": 4902,
      "bal": 4903,
      "##lysis": 4904,
      "Based": 4905,
      "Such": 4906,
      "bed": 4907,
      "distin": 4908,
      "MO": 4909,
      "bacter": 4910,
      "Both": 4911,
      "vs": 4912,
      "72": 4913,
      "optimization": 4914,
      "asp": 4915,
      "shar": 4916,
      "whether": 4917,
      "criter": 4918,
      "##H2": 4919,
      "##bor": 4920,
      "##ellent": 4921,
      "barrier": 4922,
      "interesting": 4923,
      "brid": 4924,
      "annealing": 4925,
      "##tization": 4926,
      "instr": 4927,
      "accept": 4928,
      "MW": 4929,
      "body": 4930,
      "##tics": 4931,
      "antib": 4932,
      "affected": 4933,
      "##ld": 4934,
      "cyl": 4935,
      "central": 4936,
      "wr": 4937,
      "##zz": 4938,
      "exposure": 4939,
      "needed": 4940,
      "mid": 4941,
      "Di": 4942,
      "##ographic": 4943,
      "last": 4944,
      "simultane": 4945,
      "grown": 4946,
      "supported": 4947,
      "thresh": 4948,
      "cul": 4949,
      "anis": 4950,
      "econ": 4951,
      "lowest": 4952,
      "67": 4953,
      "knowledge": 4954,
      "designed": 4955,
      "amounts": 4956,
      "##onduc": 4957,
      "radius": 4958,
      "residual": 4959,
      "amorph": 4960,
      "##ash": 4961,
      "adsorbed": 4962,
      "nonlinear": 4963,
      "land": 4964,
      "relation": 4965,
      "occup": 4966,
      "cond": 4967,
      "constit": 4968,
      "affect": 4969,
      "##cription": 4970,
      "54": 4971,
      "determination": 4972,
      "requires": 4973,
      "derivatives": 4974,
      "reli": 4975,
      "57": 4976,
      "achieve": 4977,
      "pepti": 4978,
      "established": 4979,
      "S1": 4980,
      "defects": 4981,
      "##ident": 4982,
      "expan": 4983,
      "excellent": 4984,
      "Using": 4985,
      "##hic": 4986,
      "##ering": 4987,
      "##water": 4988,
      "counter": 4989,
      "##avity": 4990,
      "vir": 4991,
      "##itting": 4992,
      "ever": 4993,
      "completely": 4994,
      "##atically": 4995,
      "quite": 4996,
      "scheme": 4997,
      "consists": 4998,
      "##Br": 4999,
      "rece": 5000,
      "frequencies": 5001,
      "six": 5002,
      "div": 5003,
      "m2": 5004,
      "49": 5005,
      "sizes": 5006,
      "nano": 5007,
      "##gin": 5008,
      "600": 5009,
      "pati": 5010,
      "fiber": 5011,
      "novel": 5012,
      "loop": 5013,
      "authors": 5014,
      "bor": 5015,
      "##acial": 5016,
      "regard": 5017,
      "ur": 5018,
      "acids": 5019,
      "forms": 5020,
      "salt": 5021,
      "56": 5022,
      "emissions": 5023,
      "green": 5024,
      "etc": 5025,
      "ii": 5026,
      "fracture": 5027,
      "sediment": 5028,
      "viscos": 5029,
      "population": 5030,
      "Sp": 5031,
      "perm": 5032,
      "poor": 5033,
      "positions": 5034,
      "neutral": 5035,
      "Sch": 5036,
      "##inates": 5037,
      "washed": 5038,
      "decay": 5039,
      "anisotrop": 5040,
      "ST": 5041,
      "future": 5042,
      "constrain": 5043,
      "bo": 5044,
      "120": 5045,
      "##ready": 5046,
      "widely": 5047,
      "extracted": 5048,
      "##atch": 5049,
      "gold": 5050,
      "allowed": 5051,
      "SP": 5052,
      "industr": 5053,
      "##orting": 5054,
      "##BA": 5055,
      "smo": 5056,
      "hole": 5057,
      "wet": 5058,
      "fig": 5059,
      "##umines": 5060,
      "##lue": 5061,
      "##uit": 5062,
      "magne": 5063,
      "biological": 5064,
      "pen": 5065,
      "pers": 5066,
      "##mic": 5067,
      "Because": 5068,
      "approximation": 5069,
      "variations": 5070,
      "##ights": 5071,
      "vapor": 5072,
      "atmosphere": 5073,
      "biomass": 5074,
      "quantif": 5075,
      "cause": 5076,
      "benef": 5077,
      "##urated": 5078,
      "amorphous": 5079,
      "subsequent": 5080,
      "take": 5081,
      "##ufact": 5082,
      "swit": 5083,
      "already": 5084,
      "77": 5085,
      "##ify": 5086,
      "##uctu": 5087,
      "text": 5088,
      "resonance": 5089,
      "overl": 5090,
      "next": 5091,
      "entire": 5092,
      "##ections": 5093,
      "precipit": 5094,
      "98": 5095,
      "##organ": 5096,
      "ens": 5097,
      "extre": 5098,
      "slope": 5099,
      "obvious": 5100,
      "adjust": 5101,
      "adv": 5102,
      "metals": 5103,
      "evaluate": 5104,
      "excited": 5105,
      "nam": 5106,
      "##ouse": 5107,
      "report": 5108,
      "expon": 5109,
      "fluctu": 5110,
      "##odynamic": 5111,
      "##ancy": 5112,
      "commun": 5113,
      "software": 5114,
      "py": 5115,
      "##oted": 5116,
      "##ibility": 5117,
      "law": 5118,
      "thi": 5119,
      "amb": 5120,
      "help": 5121,
      "early": 5122,
      "First": 5123,
      "year": 5124,
      "contains": 5125,
      "##thal": 5126,
      "ap": 5127,
      "scanning": 5128,
      "63": 5129,
      "##coh": 5130,
      "##hyd": 5131,
      "forces": 5132,
      "##olar": 5133,
      "##acing": 5134,
      "AF": 5135,
      "separated": 5136,
      "done": 5137,
      "##enari": 5138,
      "GC": 5139,
      "reached": 5140,
      "third": 5141,
      "During": 5142,
      "##tes": 5143,
      "62": 5144,
      "##ataly": 5145,
      "μg": 5146,
      "##orous": 5147,
      "condens": 5148,
      "##sh": 5149,
      "bub": 5150,
      "starting": 5151,
      "##ape": 5152,
      "play": 5153,
      "plan": 5154,
      "##roc": 5155,
      "##othe": 5156,
      "64": 5157,
      "probably": 5158,
      "##exp": 5159,
      "sand": 5160,
      "strategy": 5161,
      "##rystall": 5162,
      "##ST": 5163,
      "03": 5164,
      "Also": 5165,
      "steady": 5166,
      "Gr": 5167,
      "investigation": 5168,
      "alloys": 5169,
      "tum": 5170,
      "USA": 5171,
      "hist": 5172,
      "cm2": 5173,
      "semiconduc": 5174,
      "SC": 5175,
      "expansion": 5176,
      "excess": 5177,
      "##ience": 5178,
      "move": 5179,
      "technology": 5180,
      "grains": 5181,
      "assigned": 5182,
      "composites": 5183,
      "Two": 5184,
      "##ometric": 5185,
      "tool": 5186,
      "##till": 5187,
      "dig": 5188,
      "aim": 5189,
      "corrosion": 5190,
      "tip": 5191,
      "##dehyd": 5192,
      "carrier": 5193,
      "droplet": 5194,
      "hot": 5195,
      "reducing": 5196,
      "##cope": 5197,
      "manufact": 5198,
      "particularly": 5199,
      "neigh": 5200,
      "phenyl": 5201,
      "square": 5202,
      "facil": 5203,
      "##osite": 5204,
      "considering": 5205,
      "viscosity": 5206,
      "cham": 5207,
      "clean": 5208,
      "relevant": 5209,
      "occurred": 5210,
      "##1−": 5211,
      "Al2O3": 5212,
      "acqu": 5213,
      "##gn": 5214,
      "horiz": 5215,
      "NPs": 5216,
      "hence": 5217,
      "##ads": 5218,
      "96": 5219,
      "##oint": 5220,
      "km": 5221,
      "importance": 5222,
      "ir": 5223,
      "##ogn": 5224,
      "CP": 5225,
      "basic": 5226,
      "distributions": 5227,
      "anion": 5228,
      "restr": 5229,
      "exhibits": 5230,
      "versus": 5231,
      "age": 5232,
      "exact": 5233,
      "activities": 5234,
      "HA": 5235,
      "##icted": 5236,
      "##ensile": 5237,
      "aromatic": 5238,
      "##erate": 5239,
      "##inary": 5240,
      "##alc": 5241,
      "reproduc": 5242,
      "location": 5243,
      "deviation": 5244,
      "AT": 5245,
      "sets": 5246,
      "##S2": 5247,
      "##osity": 5248,
      "IL": 5249,
      "specimen": 5250,
      "dd": 5251,
      "simulated": 5252,
      "accurate": 5253,
      "##arbon": 5254,
      "connected": 5255,
      "##17": 5256,
      "understanding": 5257,
      "decreasing": 5258,
      "Note": 5259,
      "rou": 5260,
      "rise": 5261,
      "solub": 5262,
      "##Ti": 5263,
      "kinetics": 5264,
      "modulus": 5265,
      "event": 5266,
      "alcoh": 5267,
      "##oses": 5268,
      "TH": 5269,
      "Be": 5270,
      "alkal": 5271,
      "SO": 5272,
      "confirm": 5273,
      "250": 5274,
      "cyt": 5275,
      "demonstrate": 5276,
      "threshold": 5277,
      "##py": 5278,
      "ammon": 5279,
      "58": 5280,
      "scenari": 5281,
      "note": 5282,
      "conjug": 5283,
      "CC": 5284,
      "varying": 5285,
      "little": 5286,
      "ann": 5287,
      "deliver": 5288,
      "sections": 5289,
      "recovery": 5290,
      "scre": 5291,
      "##henyl": 5292,
      "nearly": 5293,
      "computed": 5294,
      "##arily": 5295,
      "alternative": 5296,
      "detector": 5297,
      "commercial": 5298,
      "enzyme": 5299,
      "extent": 5300,
      "##pping": 5301,
      "chloride": 5302,
      "working": 5303,
      "##ital": 5304,
      "angles": 5305,
      "##ressive": 5306,
      "always": 5307,
      "every": 5308,
      "forming": 5309,
      "##yan": 5310,
      "transitions": 5311,
      "aer": 5312,
      "precipitation": 5313,
      "represented": 5314,
      "isot": 5315,
      "##tific": 5316,
      "kind": 5317,
      "presents": 5318,
      "suggesting": 5319,
      "extended": 5320,
      "lack": 5321,
      "regime": 5322,
      "ED": 5323,
      "##ids": 5324,
      "program": 5325,
      "Addition": 5326,
      "identical": 5327,
      "Ba": 5328,
      "maxim": 5329,
      "ones": 5330,
      "tensile": 5331,
      "So": 5332,
      "##SO4": 5333,
      "##ta": 5334,
      "##min": 5335,
      "66": 5336,
      "MPa": 5337,
      "mA": 5338,
      "##igr": 5339,
      "metabol": 5340,
      "doping": 5341,
      "draw": 5342,
      "metallic": 5343,
      "van": 5344,
      "comparable": 5345,
      "##SM": 5346,
      "##ude": 5347,
      "composed": 5348,
      "inhibit": 5349,
      "##hedral": 5350,
      "except": 5351,
      "97": 5352,
      "##osis": 5353,
      "##ustion": 5354,
      "depending": 5355,
      "mach": 5356,
      "heated": 5357,
      "enough": 5358,
      "typically": 5359,
      "##25": 5360,
      "describe": 5361,
      "##oly": 5362,
      "mixtures": 5363,
      "parts": 5364,
      "recogn": 5365,
      "68": 5366,
      "Pr": 5367,
      "oct": 5368,
      "suspension": 5369,
      "events": 5370,
      "disloc": 5371,
      "##luor": 5372,
      "hour": 5373,
      "nanot": 5374,
      "##tition": 5375,
      "concrete": 5376,
      "sto": 5377,
      "##ground": 5378,
      "activated": 5379,
      "##Se": 5380,
      "##EA": 5381,
      "##ymer": 5382,
      "##uk": 5383,
      "mice": 5384,
      "earlier": 5385,
      "ow": 5386,
      "tox": 5387,
      "chall": 5388,
      "rob": 5389,
      "04": 5390,
      "enhancement": 5391,
      "##max": 5392,
      "##enes": 5393,
      "ice": 5394,
      "##set": 5395,
      "monol": 5396,
      "##−3": 5397,
      "C3": 5398,
      "distinct": 5399,
      "cub": 5400,
      "rever": 5401,
      "stirred": 5402,
      "blue": 5403,
      "elim": 5404,
      "asymm": 5405,
      "stack": 5406,
      "numbers": 5407,
      "satisf": 5408,
      "molar": 5409,
      "59": 5410,
      "adap": 5411,
      "origin": 5412,
      "##tile": 5413,
      "calculate": 5414,
      "adhe": 5415,
      "isother": 5416,
      "Le": 5417,
      "modeling": 5418,
      "vi": 5419,
      "friction": 5420,
      "risk": 5421,
      "##ults": 5422,
      "s−1": 5423,
      "##late": 5424,
      "orth": 5425,
      "fund": 5426,
      "De": 5427,
      "homogeneous": 5428,
      "bias": 5429,
      "optimized": 5430,
      "App": 5431,
      "2000": 5432,
      "details": 5433,
      "inner": 5434,
      "illustrated": 5435,
      "substan": 5436,
      "stim": 5437,
      "solvents": 5438,
      "##aring": 5439,
      "instead": 5440,
      "review": 5441,
      "testing": 5442,
      "##arrow": 5443,
      "combustion": 5444,
      "##uting": 5445,
      "refr": 5446,
      "exposed": 5447,
      "##pite": 5448,
      "successfully": 5449,
      "align": 5450,
      "##seud": 5451,
      "g−1": 5452,
      "chromatography": 5453,
      "precursor": 5454,
      "##sess": 5455,
      "198": 5456,
      "##ylation": 5457,
      "##time": 5458,
      "clim": 5459,
      "##RNA": 5460,
      "diagr": 5461,
      "exclu": 5462,
      "attention": 5463,
      "infr": 5464,
      "charged": 5465,
      "Sr": 5466,
      "##tructures": 5467,
      "##ened": 5468,
      "stiff": 5469,
      "##ata": 5470,
      "Ac": 5471,
      "##wh": 5472,
      "sufficient": 5473,
      "hydrophobic": 5474,
      "lam": 5475,
      "desired": 5476,
      "medi": 5477,
      "##ches": 5478,
      "fold": 5479,
      "tissue": 5480,
      "abund": 5481,
      "unique": 5482,
      "consequ": 5483,
      "##ung": 5484,
      "var": 5485,
      "##ulate": 5486,
      "GO": 5487,
      "labor": 5488,
      "immun": 5489,
      "evaluation": 5490,
      "S2": 5491,
      "##ars": 5492,
      "ent": 5493,
      "sampling": 5494,
      "flat": 5495,
      "property": 5496,
      "China": 5497,
      "favor": 5498,
      "seems": 5499,
      "dye": 5500,
      "chamber": 5501,
      "##itted": 5502,
      "supply": 5503,
      "800": 5504,
      "Due": 5505,
      "objective": 5506,
      "channels": 5507,
      "CV": 5508,
      "μM": 5509,
      "fine": 5510,
      "69": 5511,
      "led": 5512,
      "possibility": 5513,
      "horizon": 5514,
      "78": 5515,
      "##oles": 5516,
      "computational": 5517,
      "defin": 5518,
      "##agement": 5519,
      "apparent": 5520,
      "CS": 5521,
      "cancer": 5522,
      "variety": 5523,
      "synthetic": 5524,
      "distances": 5525,
      "compare": 5526,
      "generate": 5527,
      "##ises": 5528,
      "111": 5529,
      "experimentally": 5530,
      "gover": 5531,
      "##ched": 5532,
      "Inc": 5533,
      "87": 5534,
      "media": 5535,
      "reag": 5536,
      "narrow": 5537,
      "assay": 5538,
      "patients": 5539,
      "phosphor": 5540,
      "##PP": 5541,
      "background": 5542,
      "##TO": 5543,
      "tetra": 5544,
      "distributed": 5545,
      "rotation": 5546,
      "Pre": 5547,
      "stream": 5548,
      "boundaries": 5549,
      "melting": 5550,
      "too": 5551,
      "##ck": 5552,
      "dark": 5553,
      "Inter": 5554,
      "mesh": 5555,
      "oxides": 5556,
      "recept": 5557,
      "advantage": 5558,
      "ambient": 5559,
      "##nel": 5560,
      "differential": 5561,
      "110": 5562,
      "−0": 5563,
      "makes": 5564,
      "improvement": 5565,
      "##uminescence": 5566,
      "microstructure": 5567,
      "##eol": 5568,
      "nanotub": 5569,
      "Cons": 5570,
      "##ry": 5571,
      "51": 5572,
      "SW": 5573,
      "##atalytic": 5574,
      "interval": 5575,
      "possess": 5576,
      "actual": 5577,
      "Sub": 5578,
      "##Fs": 5579,
      "ceramic": 5580,
      "modification": 5581,
      "dominant": 5582,
      "##CH2": 5583,
      "substantial": 5584,
      "correction": 5585,
      "spectrometer": 5586,
      "##21": 5587,
      "predict": 5588,
      "AC": 5589,
      "carboxyl": 5590,
      "pores": 5591,
      "surfact": 5592,
      "Et": 5593,
      "##io": 5594,
      "##igen": 5595,
      "##23": 5596,
      "concept": 5597,
      "FA": 5598,
      "fitting": 5599,
      "just": 5600,
      "schem": 5601,
      "DMS": 5602,
      "takes": 5603,
      "rig": 5604,
      "saf": 5605,
      "smooth": 5606,
      "##order": 5607,
      "promising": 5608,
      "uncertainty": 5609,
      "phenomenon": 5610,
      "selective": 5611,
      "identify": 5612,
      "copol": 5613,
      "06": 5614,
      "axial": 5615,
      "##eness": 5616,
      "##ED": 5617,
      "##Mn": 5618,
      "mobility": 5619,
      "76": 5620,
      "CT": 5621,
      "sharp": 5622,
      "74": 5623,
      "phosphate": 5624,
      "vibration": 5625,
      "resour": 5626,
      "73": 5627,
      "migr": 5628,
      "EC": 5629,
      "responsible": 5630,
      "prediction": 5631,
      "##estion": 5632,
      "##air": 5633,
      "##iral": 5634,
      "quantitative": 5635,
      "##dle": 5636,
      "HCl": 5637,
      "inser": 5638,
      "##uble": 5639,
      "Each": 5640,
      "##odies": 5641,
      "densities": 5642,
      "dissoci": 5643,
      "plants": 5644,
      "impur": 5645,
      "dose": 5646,
      "##alth": 5647,
      "##outh": 5648,
      "balance": 5649,
      "##versity": 5650,
      "PT": 5651,
      "##orter": 5652,
      "showing": 5653,
      "2a": 5654,
      "pan": 5655,
      "existing": 5656,
      "exceed": 5657,
      "##H4": 5658,
      "errors": 5659,
      "##ats": 5660,
      "chemistry": 5661,
      "microscope": 5662,
      "glucose": 5663,
      "industrial": 5664,
      "dimensions": 5665,
      "##tries": 5666,
      "integrated": 5667,
      "cycl": 5668,
      "##dehyde": 5669,
      "##Pa": 5670,
      "acetate": 5671,
      "quad": 5672,
      "interfer": 5673,
      "surround": 5674,
      "##rol": 5675,
      "##idal": 5676,
      "redox": 5677,
      "costs": 5678,
      "IV": 5679,
      "compe": 5680,
      "sulfur": 5681,
      "outer": 5682,
      "imaging": 5683,
      "cathode": 5684,
      "##Co": 5685,
      "##bed": 5686,
      "##olute": 5687,
      "##agonal": 5688,
      "batter": 5689,
      "percentage": 5690,
      "hem": 5691,
      "DO": 5692,
      "##inder": 5693,
      "##cted": 5694,
      "TO": 5695,
      "##EC": 5696,
      "128": 5697,
      "underg": 5698,
      "elev": 5699,
      "##apped": 5700,
      "cyclic": 5701,
      "##PR": 5702,
      "pseud": 5703,
      "coal": 5704,
      "Supplementary": 5705,
      "listed": 5706,
      "deep": 5707,
      "##idence": 5708,
      "hyper": 5709,
      "PI": 5710,
      "vit": 5711,
      "##sian": 5712,
      "Rh": 5713,
      "##static": 5714,
      "porosity": 5715,
      "##BT": 5716,
      "making": 5717,
      "pip": 5718,
      "potentials": 5719,
      "host": 5720,
      "statistical": 5721,
      "##ading": 5722,
      "Four": 5723,
      "4H": 5724,
      "##elding": 5725,
      "static": 5726,
      "##bly": 5727,
      "agent": 5728,
      "solubility": 5729,
      "assembly": 5730,
      "##temp": 5731,
      "##ream": 5732,
      "1a": 5733,
      "nucleation": 5734,
      "remaining": 5735,
      "whose": 5736,
      "##ellow": 5737,
      "seed": 5738,
      "##esis": 5739,
      "accomp": 5740,
      "electricity": 5741,
      "stretching": 5742,
      "purch": 5743,
      "practical": 5744,
      "excit": 5745,
      "facilit": 5746,
      "shifts": 5747,
      "##sin": 5748,
      "particip": 5749,
      "rapidly": 5750,
      "ranging": 5751,
      "fabricated": 5752,
      "Some": 5753,
      "contam": 5754,
      "station": 5755,
      "##urations": 5756,
      "kept": 5757,
      "culture": 5758,
      "gave": 5759,
      "interfacial": 5760,
      "MC": 5761,
      "##LA": 5762,
      "08": 5763,
      "thermodynamic": 5764,
      "findings": 5765,
      "label": 5766,
      "ideal": 5767,
      "substitution": 5768,
      "07": 5769,
      "sensors": 5770,
      "##tance": 5771,
      "##FC": 5772,
      "existence": 5773,
      "##odic": 5774,
      "##ipped": 5775,
      "window": 5776,
      "what": 5777,
      "track": 5778,
      "##sk": 5779,
      "##turb": 5780,
      "##lation": 5781,
      "instance": 5782,
      "plots": 5783,
      "##Me": 5784,
      "plates": 5785,
      "##eared": 5786,
      "capacit": 5787,
      "##ords": 5788,
      "month": 5789,
      "integration": 5790,
      "ether": 5791,
      "defect": 5792,
      "calibration": 5793,
      "86": 5794,
      "nuclear": 5795,
      "fundam": 5796,
      "recomb": 5797,
      "reactive": 5798,
      "##ached": 5799,
      "neglig": 5800,
      "μL": 5801,
      "dise": 5802,
      "ce": 5803,
      "causes": 5804,
      "##arding": 5805,
      "##2−": 5806,
      "hypothe": 5807,
      "varied": 5808,
      "83": 5809,
      "management": 5810,
      "##theless": 5811,
      "white": 5812,
      "##zo": 5813,
      "##MC": 5814,
      "##ogenic": 5815,
      "##amil": 5816,
      "disorder": 5817,
      "##enting": 5818,
      "plotted": 5819,
      "##SS": 5820,
      "MI": 5821,
      "reflect": 5822,
      "graphite": 5823,
      "tor": 5824,
      "imped": 5825,
      "scan": 5826,
      "##anium": 5827,
      "bending": 5828,
      "84": 5829,
      "Fe3": 5830,
      "##icular": 5831,
      "mV": 5832,
      "88": 5833,
      "extract": 5834,
      "saturation": 5835,
      "##kn": 5836,
      "get": 5837,
      "##Ni": 5838,
      "selection": 5839,
      "##19": 5840,
      "taking": 5841,
      "##adition": 5842,
      "##otyp": 5843,
      "NA": 5844,
      "XPS": 5845,
      "donor": 5846,
      "##thern": 5847,
      "characterization": 5848,
      "cold": 5849,
      "##tre": 5850,
      "vehic": 5851,
      "namely": 5852,
      "linked": 5853,
      "DMSO": 5854,
      "79": 5855,
      "purpose": 5856,
      "##ulations": 5857,
      "arch": 5858,
      "absolute": 5859,
      "bis": 5860,
      "##tine": 5861,
      "C6": 5862,
      "anode": 5863,
      "matter": 5864,
      "SI": 5865,
      "##ild": 5866,
      "stresses": 5867,
      "##licit": 5868,
      "remain": 5869,
      "residue": 5870,
      "commonly": 5871,
      "##acting": 5872,
      "HO": 5873,
      "cos": 5874,
      "##ict": 5875,
      "remove": 5876,
      "conduction": 5877,
      "circuit": 5878,
      "coatings": 5879,
      "Pl": 5880,
      "contributions": 5881,
      "pathway": 5882,
      "lithium": 5883,
      "RT": 5884,
      "##onses": 5885,
      "changed": 5886,
      "throughout": 5887,
      "##otes": 5888,
      "125": 5889,
      "##equ": 5890,
      "conformation": 5891,
      "94": 5892,
      "directions": 5893,
      "##uction": 5894,
      "polymerization": 5895,
      "desorption": 5896,
      "instrument": 5897,
      "distill": 5898,
      "special": 5899,
      "penetr": 5900,
      "##GF": 5901,
      "propagation": 5902,
      "pairs": 5903,
      "##itten": 5904,
      "crystallization": 5905,
      "##ryl": 5906,
      "##stream": 5907,
      "##atus": 5908,
      "##rile": 5909,
      "hydroxyl": 5910,
      "assumption": 5911,
      "substituted": 5912,
      "93": 5913,
      "consum": 5914,
      "responses": 5915,
      "cations": 5916,
      "##ochemical": 5917,
      "Sm": 5918,
      "Per": 5919,
      "2010": 5920,
      "zeol": 5921,
      "volum": 5922,
      "prevent": 5923,
      "LC": 5924,
      "focused": 5925,
      "gran": 5926,
      "brom": 5927,
      "explain": 5928,
      "correlated": 5929,
      "##ods": 5930,
      "##elf": 5931,
      "detect": 5932,
      "##ensor": 5933,
      "negligible": 5934,
      "measuring": 5935,
      "quas": 5936,
      "mineral": 5937,
      "fibers": 5938,
      "89": 5939,
      "phon": 5940,
      "Und": 5941,
      "construction": 5942,
      "compression": 5943,
      "##heric": 5944,
      "evaporation": 5945,
      "spherical": 5946,
      "summarized": 5947,
      "remark": 5948,
      "effectively": 5949,
      "PEG": 5950,
      "NP": 5951,
      "MD": 5952,
      "82": 5953,
      "92": 5954,
      "Des": 5955,
      "correct": 5956,
      "estimation": 5957,
      "Fr": 5958,
      "##arr": 5959,
      "autom": 5960,
      "001": 5961,
      "##oxid": 5962,
      "Recently": 5963,
      "filtered": 5964,
      "##idity": 5965,
      "DFT": 5966,
      "##asc": 5967,
      "##amide": 5968,
      "rein": 5969,
      "figure": 5970,
      "##take": 5971,
      "##RP": 5972,
      "##70": 5973,
      "discre": 5974,
      "inhibition": 5975,
      "horizontal": 5976,
      "##ymp": 5977,
      "attemp": 5978,
      "involving": 5979,
      "inters": 5980,
      "simpl": 5981,
      "delay": 5982,
      "pyro": 5983,
      "roughness": 5984,
      "Ab": 5985,
      "##cher": 5986,
      "genes": 5987,
      "fresh": 5988,
      "blood": 5989,
      "gain": 5990,
      "magnetization": 5991,
      "array": 5992,
      "description": 5993,
      "##ury": 5994,
      "saturated": 5995,
      "normalized": 5996,
      "formula": 5997,
      "##insic": 5998,
      "explor": 5999,
      "quart": 6000,
      "##lish": 6001,
      "concentrated": 6002,
      "DA": 6003,
      "minor": 6004,
      "##back": 6005,
      "Another": 6006,
      "##CO3": 6007,
      "3a": 6008,
      "##gence": 6009,
      "##herent": 6010,
      "inver": 6011,
      "plat": 6012,
      "##ai": 6013,
      "##axial": 6014,
      "AA": 6015,
      "tension": 6016,
      "##acent": 6017,
      "##aters": 6018,
      "qual": 6019,
      "action": 6020,
      "##oll": 6021,
      "derivative": 6022,
      "simultaneously": 6023,
      "Mic": 6024,
      "subjected": 6025,
      "AN": 6026,
      "perturb": 6027,
      "61": 6028,
      "iter": 6029,
      "maintained": 6030,
      "##ters": 6031,
      "stra": 6032,
      "##LS": 6033,
      "interm": 6034,
      "IC": 6035,
      "proportional": 6036,
      "##ocl": 6037,
      "includes": 6038,
      "##obil": 6039,
      "##RA": 6040,
      "dissolution": 6041,
      "##oral": 6042,
      "stiffness": 6043,
      "purified": 6044,
      "compositions": 6045,
      "perf": 6046,
      "visual": 6047,
      "pi": 6048,
      "##ulating": 6049,
      "economic": 6050,
      "Ne": 6051,
      "reduces": 6052,
      "waves": 6053,
      "microp": 6054,
      "comparing": 6055,
      "sust": 6056,
      "choice": 6057,
      "repeated": 6058,
      "##ichi": 6059,
      "published": 6060,
      "##ometry": 6061,
      "adopted": 6062,
      "Te": 6063,
      "Gaus": 6064,
      "classical": 6065,
      "Mod": 6066,
      "purchased": 6067,
      "##rees": 6068,
      "fundamental": 6069,
      "wear": 6070,
      "Under": 6071,
      "net": 6072,
      "context": 6073,
      "monitoring": 6074,
      "generat": 6075,
      "GA": 6076,
      "straight": 6077,
      "##tation": 6078,
      "##mentation": 6079,
      "##avy": 6080,
      "laboratory": 6081,
      "black": 6082,
      "networks": 6083,
      "silver": 6084,
      "contribute": 6085,
      "tradition": 6086,
      "##man": 6087,
      "##ickel": 6088,
      "contained": 6089,
      "wee": 6090,
      "monomer": 6091,
      "flows": 6092,
      "observe": 6093,
      "residues": 6094,
      "PF": 6095,
      "L−1": 6096,
      "alcohol": 6097,
      "implies": 6098,
      "reports": 6099,
      "##ylene": 6100,
      "closed": 6101,
      "past": 6102,
      "stages": 6103,
      "##ergy": 6104,
      "##tices": 6105,
      "equipped": 6106,
      "driven": 6107,
      "##onit": 6108,
      "symmetric": 6109,
      "turbul": 6110,
      "inlet": 6111,
      "##igma": 6112,
      "fractions": 6113,
      "##aking": 6114,
      "09": 6115,
      "assume": 6116,
      "cavity": 6117,
      "##lus": 6118,
      "##ulose": 6119,
      "displayed": 6120,
      "DC": 6121,
      "##graph": 6122,
      "mol−1": 6123,
      "optimum": 6124,
      "Among": 6125,
      "procedures": 6126,
      "alkyl": 6127,
      "fault": 6128,
      "mob": 6129,
      "limits": 6130,
      "nanof": 6131,
      "resis": 6132,
      "eigen": 6133,
      "nanow": 6134,
      "##ifically": 6135,
      "lateral": 6136,
      "earth": 6137,
      "concern": 6138,
      "cooled": 6139,
      "cruc": 6140,
      "PB": 6141,
      "##organic": 6142,
      "needs": 6143,
      "orbital": 6144,
      "glyc": 6145,
      "semi": 6146,
      "uptake": 6147,
      "prol": 6148,
      "cyclo": 6149,
      "intensities": 6150,
      "differenti": 6151,
      "configurations": 6152,
      "##anged": 6153,
      "Never": 6154,
      "##amer": 6155,
      "domains": 6156,
      "Additionally": 6157,
      "adjacent": 6158,
      "olig": 6159,
      "advantages": 6160,
      "applying": 6161,
      "71": 6162,
      "Nevertheless": 6163,
      "H2O2": 6164,
      "conclusion": 6165,
      "gradually": 6166,
      "cult": 6167,
      "reasonable": 6168,
      "consequence": 6169,
      "##uck": 6170,
      "compr": 6171,
      "perp": 6172,
      "##rob": 6173,
      "##tis": 6174,
      "Indeed": 6175,
      "az": 6176,
      "separate": 6177,
      "sheet": 6178,
      "artic": 6179,
      "centrif": 6180,
      "agents": 6181,
      "##zer": 6182,
      "duration": 6183,
      "largest": 6184,
      "##esides": 6185,
      "eq": 6186,
      "considerable": 6187,
      "anim": 6188,
      "situation": 6189,
      "who": 6190,
      "##GO": 6191,
      "robust": 6192,
      "photon": 6193,
      "ensure": 6194,
      "extrem": 6195,
      "tolu": 6196,
      "transferred": 6197,
      "regression": 6198,
      "##oids": 6199,
      "filled": 6200,
      "exponential": 6201,
      "Nor": 6202,
      "nanocomp": 6203,
      "Consequently": 6204,
      "slip": 6205,
      "NaCl": 6206,
      "clin": 6207,
      "cubic": 6208,
      "##come": 6209,
      "magnet": 6210,
      "quartz": 6211,
      "##100": 6212,
      "trig": 6213,
      "aluminum": 6214,
      "##ien": 6215,
      "##illary": 6216,
      "undergo": 6217,
      "##ries": 6218,
      "tail": 6219,
      "front": 6220,
      "700": 6221,
      "incident": 6222,
      "bath": 6223,
      "permeability": 6224,
      "manner": 6225,
      "tunnel": 6226,
      "stored": 6227,
      "accumulation": 6228,
      "SS": 6229,
      "##endicular": 6230,
      "##erge": 6231,
      "Gen": 6232,
      "dispersed": 6233,
      "##lim": 6234,
      "contents": 6235,
      "##abor": 6236,
      "lengths": 6237,
      "##iments": 6238,
      "Consider": 6239,
      "peptide": 6240,
      "perpendicular": 6241,
      "head": 6242,
      "belie": 6243,
      "##Ms": 6244,
      "constitu": 6245,
      "##NPs": 6246,
      "THF": 6247,
      "##andid": 6248,
      "methane": 6249,
      "Calc": 6250,
      "reconstr": 6251,
      "changing": 6252,
      "##TC": 6253,
      "immobil": 6254,
      "consisting": 6255,
      "reinfor": 6256,
      "##ift": 6257,
      "fitted": 6258,
      "harm": 6259,
      "vibrational": 6260,
      "##24": 6261,
      "shaped": 6262,
      "flame": 6263,
      "##gue": 6264,
      "##angement": 6265,
      "concluded": 6266,
      "terminal": 6267,
      "##inement": 6268,
      "exists": 6269,
      "##H2O": 6270,
      "Similarly": 6271,
      "AFM": 6272,
      "##stit": 6273,
      "impedance": 6274,
      "serv": 6275,
      "check": 6276,
      "ill": 6277,
      "infrared": 6278,
      "yellow": 6279,
      "##off": 6280,
      "faster": 6281,
      "mi": 6282,
      "neighbor": 6283,
      "##ert": 6284,
      "uns": 6285,
      "##onitrile": 6286,
      "regular": 6287,
      "yet": 6288,
      "electrostatic": 6289,
      "begin": 6290,
      "##etrical": 6291,
      "CB": 6292,
      "identification": 6293,
      "stronger": 6294,
      "nodes": 6295,
      "##ellular": 6296,
      "partially": 6297,
      "hydrolysis": 6298,
      "But": 6299,
      "planar": 6300,
      "nickel": 6301,
      "industry": 6302,
      "lifetime": 6303,
      "adding": 6304,
      "evident": 6305,
      "immedi": 6306,
      "##ano": 6307,
      "HPLC": 6308,
      "##yond": 6309,
      "##anth": 6310,
      "tumor": 6311,
      "care": 6312,
      "setting": 6313,
      "marked": 6314,
      "interv": 6315,
      "##ends": 6316,
      "##FA": 6317,
      "loaded": 6318,
      "keep": 6319,
      "diagram": 6320,
      "spre": 6321,
      "Qu": 6322,
      "true": 6323,
      "MB": 6324,
      "constructed": 6325,
      "Sever": 6326,
      "Resear": 6327,
      "dimethyl": 6328,
      "mesop": 6329,
      "investigations": 6330,
      "##EP": 6331,
      "divided": 6332,
      "transient": 6333,
      "face": 6334,
      "Other": 6335,
      "##atigue": 6336,
      "##alk": 6337,
      "pas": 6338,
      "##zing": 6339,
      "##otropic": 6340,
      "extension": 6341,
      "initially": 6342,
      "received": 6343,
      "##romagnetic": 6344,
      "dipole": 6345,
      "intrinsic": 6346,
      "retention": 6347,
      "##TS": 6348,
      "##Cu": 6349,
      "inorganic": 6350,
      "hydroc": 6351,
      "examples": 6352,
      "junction": 6353,
      "opposite": 6354,
      "TA": 6355,
      "protoc": 6356,
      "incubated": 6357,
      "pressures": 6358,
      "SiC": 6359,
      "Nb": 6360,
      "127": 6361,
      "purity": 6362,
      "rings": 6363,
      "##abilities": 6364,
      "methodology": 6365,
      "SR": 6366,
      "semiconductor": 6367,
      "130": 6368,
      "stoichi": 6369,
      "shifted": 6370,
      "##rown": 6371,
      "binary": 6372,
      "written": 6373,
      "determining": 6374,
      "easy": 6375,
      "##tingu": 6376,
      "##inations": 6377,
      "fabrication": 6378,
      "govern": 6379,
      "quantity": 6380,
      "reveal": 6381,
      "definition": 6382,
      "valence": 6383,
      "unc": 6384,
      "walls": 6385,
      "toluene": 6386,
      "fall": 6387,
      "market": 6388,
      "##NI": 6389,
      "others": 6390,
      "##asons": 6391,
      "zinc": 6392,
      "powders": 6393,
      "sput": 6394,
      "##anti": 6395,
      "melt": 6396,
      "sec": 6397,
      "Several": 6398,
      "candid": 6399,
      "capacitance": 6400,
      "utilized": 6401,
      "spr": 6402,
      "coordinate": 6403,
      "##etal": 6404,
      "##uments": 6405,
      "emerg": 6406,
      "LD": 6407,
      "##iaz": 6408,
      "##conduc": 6409,
      "formulation": 6410,
      "soluble": 6411,
      "##33": 6412,
      "reveals": 6413,
      "##tivation": 6414,
      "fatigue": 6415,
      "2009": 6416,
      "moist": 6417,
      "1b": 6418,
      "##erated": 6419,
      "strains": 6420,
      "CI": 6421,
      "TC": 6422,
      "criteria": 6423,
      "implemented": 6424,
      "reactivity": 6425,
      "heavy": 6426,
      "affinity": 6427,
      "ultras": 6428,
      "PBS": 6429,
      "cour": 6430,
      "AD": 6431,
      "##inyl": 6432,
      "##adily": 6433,
      "coverage": 6434,
      "##Ga": 6435,
      "##isc": 6436,
      "##drich": 6437,
      "2b": 6438,
      "constraints": 6439,
      "involves": 6440,
      "##ley": 6441,
      "carbonate": 6442,
      "ester": 6443,
      "health": 6444,
      "momentum": 6445,
      "##cepti": 6446,
      "cylind": 6447,
      "cellular": 6448,
      "HF": 6449,
      "anisotropy": 6450,
      "81": 6451,
      "works": 6452,
      "principle": 6453,
      "fluctuations": 6454,
      "expand": 6455,
      "Aldrich": 6456,
      "estimates": 6457,
      "Gaussian": 6458,
      "MR": 6459,
      "representative": 6460,
      "##Te": 6461,
      "climate": 6462,
      "sus": 6463,
      "proceed": 6464,
      "PO": 6465,
      "##ynam": 6466,
      "phenomena": 6467,
      "Germ": 6468,
      "traditional": 6469,
      "##ench": 6470,
      "centrifug": 6471,
      "isomer": 6472,
      "##ancies": 6473,
      "planes": 6474,
      "##sively": 6475,
      "stirring": 6476,
      "rare": 6477,
      "And": 6478,
      "##ste": 6479,
      "mediated": 6480,
      "##ah": 6481,
      "locations": 6482,
      "##ivo": 6483,
      "sensing": 6484,
      "##rief": 6485,
      "##inite": 6486,
      "##PD": 6487,
      "distingu": 6488,
      "##ounted": 6489,
      "ranges": 6490,
      "Ther": 6491,
      "subsequently": 6492,
      "complic": 6493,
      "##idaz": 6494,
      "lipid": 6495,
      "oriented": 6496,
      "grade": 6497,
      "expect": 6498,
      "asymmetric": 6499,
      "SH": 6500,
      "world": 6501,
      "Research": 6502,
      "ordered": 6503,
      "ign": 6504,
      "predom": 6505,
      "polic": 6506,
      "localized": 6507,
      "embed": 6508,
      "phenol": 6509,
      "quanti": 6510,
      "##has": 6511,
      "capture": 6512,
      "driving": 6513,
      "appeared": 6514,
      "2011": 6515,
      "define": 6516,
      "start": 6517,
      "dimer": 6518,
      "##ips": 6519,
      "periods": 6520,
      "assis": 6521,
      "empir": 6522,
      "##tonian": 6523,
      "TS": 6524,
      "node": 6525,
      "mus": 6526,
      "vivo": 6527,
      "slu": 6528,
      "##oprop": 6529,
      "Exper": 6530,
      "##ermi": 6531,
      "food": 6532,
      "engineering": 6533,
      "damp": 6534,
      "itself": 6535,
      "##cm": 6536,
      "##angular": 6537,
      "##ulsion": 6538,
      "Ir": 6539,
      "radial": 6540,
      "covered": 6541,
      "project": 6542,
      "mostly": 6543,
      "deform": 6544,
      "requirements": 6545,
      "qualit": 6546,
      "##ighted": 6547,
      "feas": 6548,
      "##osing": 6549,
      "##opl": 6550,
      "Most": 6551,
      "##aneous": 6552,
      "cm−2": 6553,
      "subject": 6554,
      "scales": 6555,
      "##atalyst": 6556,
      "attached": 6557,
      "bios": 6558,
      "averaged": 6559,
      "suscepti": 6560,
      "129": 6561,
      "##eline": 6562,
      "AB": 6563,
      "question": 6564,
      "safety": 6565,
      "Sigma": 6566,
      "respective": 6567,
      "decision": 6568,
      "2008": 6569,
      "acidic": 6570,
      "gate": 6571,
      "rh": 6572,
      "har": 6573,
      "polyc": 6574,
      "##ectiv": 6575,
      "Ta": 6576,
      "reaches": 6577,
      "Typ": 6578,
      "created": 6579,
      "lear": 6580,
      "uses": 6581,
      "adhesion": 6582,
      "surfactant": 6583,
      "ES": 6584,
      "wire": 6585,
      "##rystalline": 6586,
      "shall": 6587,
      "migration": 6588,
      "91": 6589,
      "correlations": 6590,
      "Car": 6591,
      "##Ac": 6592,
      "issue": 6593,
      "TM": 6594,
      "periodic": 6595,
      "edges": 6596,
      "Analy": 6597,
      "FTIR": 6598,
      "Hg": 6599,
      "predictions": 6600,
      "##son": 6601,
      "occurr": 6602,
      "converted": 6603,
      "##NP": 6604,
      "##itic": 6605,
      "oxidized": 6606,
      "serum": 6607,
      "losses": 6608,
      "bonded": 6609,
      "##adium": 6610,
      "##TT": 6611,
      "FE": 6612,
      "vitro": 6613,
      "pent": 6614,
      "microw": 6615,
      "##sip": 6616,
      "beyond": 6617,
      "hardness": 6618,
      "measures": 6619,
      "shorter": 6620,
      "Let": 6621,
      "read": 6622,
      "voltamm": 6623,
      "##ichlor": 6624,
      "4a": 6625,
      "##usion": 6626,
      "bacteria": 6627,
      "aggregation": 6628,
      "pix": 6629,
      "##LD": 6630,
      "dominated": 6631,
      "New": 6632,
      "integral": 6633,
      "technologies": 6634,
      "establish": 6635,
      "drying": 6636,
      "##rices": 6637,
      "extremely": 6638,
      "photocatalytic": 6639,
      "providing": 6640,
      "atmospheric": 6641,
      "spacing": 6642,
      "##32": 6643,
      "##di": 6644,
      "reflection": 6645,
      "growing": 6646,
      "Found": 6647,
      "strategies": 6648,
      "Samp": 6649,
      "180": 6650,
      "##ious": 6651,
      "AP": 6652,
      "hydrog": 6653,
      "conform": 6654,
      "##aldehyde": 6655,
      "angular": 6656,
      "Jap": 6657,
      "resolved": 6658,
      "holes": 6659,
      "code": 6660,
      "former": 6661,
      "##CH3": 6662,
      "entrop": 6663,
      "##omal": 6664,
      "LA": 6665,
      "annealed": 6666,
      "calcium": 6667,
      "##itr": 6668,
      "poll": 6669,
      "influenced": 6670,
      "assessment": 6671,
      "##ades": 6672,
      "solved": 6673,
      "dissociation": 6674,
      "sequences": 6675,
      "capillary": 6676,
      "##irect": 6677,
      "infl": 6678,
      "##ielding": 6679,
      "iod": 6680,
      "CNT": 6681,
      "public": 6682,
      "delivery": 6683,
      "thereby": 6684,
      "Fermi": 6685,
      "remained": 6686,
      "released": 6687,
      "CR": 6688,
      "superconduc": 6689,
      "##cribed": 6690,
      "greatly": 6691,
      "search": 6692,
      "price": 6693,
      "infer": 6694,
      "SD": 6695,
      "kJ": 6696,
      "aggregates": 6697,
      "##oir": 6698,
      "##enew": 6699,
      "##NS": 6700,
      "##zzy": 6701,
      "##bles": 6702,
      "splitting": 6703,
      "purification": 6704,
      "challeng": 6705,
      "compressive": 6706,
      "bone": 6707,
      "monitored": 6708,
      "##known": 6709,
      "trace": 6710,
      "Uni": 6711,
      "discrete": 6712,
      "outs": 6713,
      "nanotubes": 6714,
      "moisture": 6715,
      "##amily": 6716,
      "##IP": 6717,
      "volati": 6718,
      "##hex": 6719,
      "access": 6720,
      "middle": 6721,
      "amine": 6722,
      "traj": 6723,
      "RA": 6724,
      "induce": 6725,
      "2012": 6726,
      "matrices": 6727,
      "RNA": 6728,
      "belong": 6729,
      "##puts": 6730,
      "dissip": 6731,
      "m3": 6732,
      "pathways": 6733,
      "burn": 6734,
      "pin": 6735,
      "gases": 6736,
      "dislocation": 6737,
      "##90": 6738,
      "adjusted": 6739,
      "fat": 6740,
      "microb": 6741,
      "##PO4": 6742,
      "unknown": 6743,
      "neur": 6744,
      "ded": 6745,
      "##Rs": 6746,
      "##ortex": 6747,
      "recombination": 6748,
      "Fourier": 6749,
      "compens": 6750,
      "anions": 6751,
      "map": 6752,
      "min−1": 6753,
      "scenario": 6754,
      "reverse": 6755,
      "NH3": 6756,
      "variability": 6757,
      "introduction": 6758,
      "pic": 6759,
      "##oline": 6760,
      "epit": 6761,
      "sea": 6762,
      "assuming": 6763,
      "receptor": 6764,
      "phonon": 6765,
      "bearing": 6766,
      "algorithms": 6767,
      "##etries": 6768,
      "alumina": 6769,
      "##int": 6770,
      "aspect": 6771,
      "cis": 6772,
      "elu": 6773,
      "Im": 6774,
      "interfaces": 6775,
      "TE": 6776,
      "Pa": 6777,
      "finally": 6778,
      "##amolecular": 6779,
      "ln": 6780,
      "##valent": 6781,
      "vess": 6782,
      "bubble": 6783,
      "CH4": 6784,
      "recyc": 6785,
      "collection": 6786,
      "incorporated": 6787,
      "implant": 6788,
      "substitu": 6789,
      "cement": 6790,
      "simply": 6791,
      "NO3": 6792,
      "##ored": 6793,
      "referred": 6794,
      "blocks": 6795,
      "C4": 6796,
      "acetone": 6797,
      "High": 6798,
      "attrib": 6799,
      "##ervoir": 6800,
      "Mon": 6801,
      "##tors": 6802,
      "course": 6803,
      "C1": 6804,
      "##elled": 6805,
      "highl": 6806,
      "##ception": 6807,
      "bip": 6808,
      "summary": 6809,
      "quantities": 6810,
      "clay": 6811,
      "##like": 6812,
      "cm3": 6813,
      "route": 6814,
      "forward": 6815,
      "##ishing": 6816,
      "season": 6817,
      "Or": 6818,
      "##iety": 6819,
      "computer": 6820,
      "incorporation": 6821,
      "##ulph": 6822,
      "onset": 6823,
      "##ra": 6824,
      "SE": 6825,
      "orbitals": 6826,
      "bil": 6827,
      "##itect": 6828,
      "105": 6829,
      "considerably": 6830,
      "##chers": 6831,
      "away": 6832,
      "##letion": 6833,
      "##lands": 6834,
      "2007": 6835,
      "disapp": 6836,
      "surrounding": 6837,
      "offer": 6838,
      "##lies": 6839,
      "joint": 6840,
      "Second": 6841,
      "cracks": 6842,
      "benzene": 6843,
      "representation": 6844,
      "Ma": 6845,
      "training": 6846,
      "hexane": 6847,
      "##H3": 6848,
      "neutron": 6849,
      "furn": 6850,
      "reliable": 6851,
      "resistivity": 6852,
      "convergence": 6853,
      "coordinates": 6854,
      "LS": 6855,
      "injected": 6856,
      "readily": 6857,
      "temporal": 6858,
      "depicted": 6859,
      "tubes": 6860,
      "discussion": 6861,
      "plays": 6862,
      "HS": 6863,
      "##role": 6864,
      "elemental": 6865,
      "##ynthe": 6866,
      "alone": 6867,
      "issues": 6868,
      "hours": 6869,
      "isotop": 6870,
      "Interesting": 6871,
      "occurring": 6872,
      "reservoir": 6873,
      "rule": 6874,
      "ionization": 6875,
      "distilled": 6876,
      "##oti": 6877,
      "quasi": 6878,
      "zones": 6879,
      "regen": 6880,
      "capability": 6881,
      "operator": 6882,
      "hypothesis": 6883,
      "occurrence": 6884,
      "circular": 6885,
      "CNTs": 6886,
      "##urrent": 6887,
      "##icial": 6888,
      "explicit": 6889,
      "Germany": 6890,
      "tex": 6891,
      "##∂x": 6892,
      "collo": 6893,
      "##asting": 6894,
      "empirical": 6895,
      "ML": 6896,
      "chiral": 6897,
      "resin": 6898,
      "Compared": 6899,
      "consideration": 6900,
      "##2O4": 6901,
      "##hing": 6902,
      "protons": 6903,
      "columns": 6904,
      "conserv": 6905,
      "kV": 6906,
      "##acet": 6907,
      "EM": 6908,
      "HT": 6909,
      "##be": 6910,
      "transverse": 6911,
      "BP": 6912,
      "Er": 6913,
      "heterogeneous": 6914,
      "fuzzy": 6915,
      "##part": 6916,
      "Besides": 6917,
      "renew": 6918,
      "pell": 6919,
      "CM": 6920,
      "analyze": 6921,
      "##nary": 6922,
      "criterion": 6923,
      "mobile": 6924,
      "negl": 6925,
      "allowing": 6926,
      "##2S": 6927,
      "absorbance": 6928,
      "octa": 6929,
      "surve": 6930,
      "scaling": 6931,
      "raw": 6932,
      "Interestingly": 6933,
      "scaff": 6934,
      "possibly": 6935,
      "enanti": 6936,
      "##ull": 6937,
      "incre": 6938,
      "diluted": 6939,
      "varies": 6940,
      "ball": 6941,
      "##cean": 6942,
      "perfect": 6943,
      "moiety": 6944,
      "tra": 6945,
      "coordinated": 6946,
      "Hamil": 6947,
      "regarding": 6948,
      "##onium": 6949,
      "switching": 6950,
      "US": 6951,
      "limiting": 6952,
      "##roph": 6953,
      "outside": 6954,
      "##ytes": 6955,
      "Spec": 6956,
      "examine": 6957,
      "closely": 6958,
      "##arse": 6959,
      "cylinder": 6960,
      "family": 6961,
      "Japan": 6962,
      "##yclic": 6963,
      "moderate": 6964,
      "analysed": 6965,
      "##ayers": 6966,
      "reasons": 6967,
      "rain": 6968,
      "##oud": 6969,
      "##uclear": 6970,
      "##Es": 6971,
      "Data": 6972,
      "microwave": 6973,
      "architect": 6974,
      "diamond": 6975,
      "3b": 6976,
      "nitrate": 6977,
      "∑i": 6978,
      "rigid": 6979,
      "proved": 6980,
      "prog": 6981,
      "attractive": 6982,
      "##RT": 6983,
      "hydroxy": 6984,
      "salts": 6985,
      "accord": 6986,
      "##iling": 6987,
      "radicals": 6988,
      "crucial": 6989,
      "underlying": 6990,
      "sustain": 6991,
      "velocities": 6992,
      "resources": 6993,
      "3d": 6994,
      "built": 6995,
      "flexible": 6996,
      "##ounced": 6997,
      "##inic": 6998,
      "##ensively": 6999,
      "centers": 7000,
      "solids": 7001,
      "return": 7002,
      "implementation": 7003,
      "norm": 7004,
      "##otox": 7005,
      "annual": 7006,
      "Cs": 7007,
      "explan": 7008,
      "currents": 7009,
      "sufficiently": 7010,
      "steam": 7011,
      "##rot": 7012,
      "##atinum": 7013,
      "acceptor": 7014,
      "producing": 7015,
      "cellulose": 7016,
      "Nd": 7017,
      "carriers": 7018,
      "##oper": 7019,
      "nom": 7020,
      "hydrophilic": 7021,
      "##arc": 7022,
      "calcd": 7023,
      "trends": 7024,
      "precision": 7025,
      "address": 7026,
      "##osel": 7027,
      "NaOH": 7028,
      "VI": 7029,
      "##vity": 7030,
      "##VA": 7031,
      "##etallic": 7032,
      "deposits": 7033,
      "##iation": 7034,
      "pron": 7035,
      "##fort": 7036,
      "denoted": 7037,
      "loads": 7038,
      "2013": 7039,
      "currently": 7040,
      "##ery": 7041,
      "dend": 7042,
      "160": 7043,
      "Europ": 7044,
      "longitud": 7045,
      "##acellular": 7046,
      "NC": 7047,
      "##elastic": 7048,
      "##DF": 7049,
      "reversible": 7050,
      "900": 7051,
      "superc": 7052,
      "##acchar": 7053,
      "phy": 7054,
      "##inter": 7055,
      "ps": 7056,
      "classification": 7057,
      "1D": 7058,
      "researchers": 7059,
      "##izations": 7060,
      "became": 7061,
      "aspects": 7062,
      "monolayer": 7063,
      "moving": 7064,
      "discover": 7065,
      "primarily": 7066,
      "trial": 7067,
      "##aching": 7068,
      "##xy": 7069,
      "##lyl": 7070,
      "developing": 7071,
      "##lowing": 7072,
      "S3": 7073,
      "##bs": 7074,
      "once": 7075,
      "equip": 7076,
      "datab": 7077,
      "Differ": 7078,
      "task": 7079,
      "rpm": 7080,
      "##BM": 7081,
      "clinical": 7082,
      "sphere": 7083,
      "panel": 7084,
      "sintering": 7085,
      "2006": 7086,
      "##ientific": 7087,
      "chloro": 7088,
      "Vari": 7089,
      "extensive": 7090,
      "C5": 7091,
      "supports": 7092,
      "##oh": 7093,
      "datas": 7094,
      "replaced": 7095,
      "essentially": 7096,
      "350": 7097,
      "harmonic": 7098,
      "immediately": 7099,
      "demonstrates": 7100,
      "enthal": 7101,
      "computation": 7102,
      "capable": 7103,
      "mathem": 7104,
      "bind": 7105,
      "zeolite": 7106,
      "PH": 7107,
      "elong": 7108,
      "diagn": 7109,
      "##enching": 7110,
      "treatments": 7111,
      "sulfate": 7112,
      "article": 7113,
      "H3": 7114,
      "Chemical": 7115,
      "##where": 7116,
      "segment": 7117,
      "sheets": 7118,
      "Over": 7119,
      "portion": 7120,
      "pharm": 7121,
      "##ovsk": 7122,
      "ra": 7123,
      "variance": 7124,
      "##ethane": 7125,
      "jet": 7126,
      "alter": 7127,
      "##phot": 7128,
      "Up": 7129,
      "##estern": 7130,
      "rest": 7131,
      "arc": 7132,
      "−2": 7133,
      "modeled": 7134,
      "##ifer": 7135,
      "superior": 7136,
      "##urally": 7137,
      "CH2Cl2": 7138,
      "displays": 7139,
      "environments": 7140,
      "##imer": 7141,
      "Europe": 7142,
      "musc": 7143,
      "##thermal": 7144,
      "##ochrom": 7145,
      "insul": 7146,
      "pronounced": 7147,
      "denotes": 7148,
      "oxidative": 7149,
      "ms": 7150,
      "##versal": 7151,
      "acetonitrile": 7152,
      "rocks": 7153,
      "##gely": 7154,
      "inverse": 7155,
      "140": 7156,
      "predominant": 7157,
      "Information": 7158,
      "precursors": 7159,
      "transpar": 7160,
      "produces": 7161,
      "largely": 7162,
      "197": 7163,
      "recomm": 7164,
      "##N4": 7165,
      "involve": 7166,
      "box": 7167,
      "2005": 7168,
      "CL": 7169,
      "potentially": 7170,
      "da": 7171,
      "entropy": 7172,
      "root": 7173,
      "##uals": 7174,
      "Is": 7175,
      "majority": 7176,
      "accompan": 7177,
      "Ass": 7178,
      "##can": 7179,
      "##used": 7180,
      "AM": 7181,
      "appearance": 7182,
      "##otic": 7183,
      "stain": 7184,
      "assessed": 7185,
      "movement": 7186,
      "##ifications": 7187,
      "shapes": 7188,
      "##ils": 7189,
      "##cale": 7190,
      "coinc": 7191,
      "stock": 7192,
      "intervals": 7193,
      "quick": 7194,
      "Cell": 7195,
      "copolymer": 7196,
      "embedded": 7197,
      "##td": 7198,
      "##IC": 7199,
      "##ogeneity": 7200,
      "late": 7201,
      "intense": 7202,
      "quenching": 7203,
      "relationships": 7204,
      "argon": 7205,
      "AR": 7206,
      "Hamiltonian": 7207,
      "worth": 7208,
      "elevated": 7209,
      "solve": 7210,
      "Three": 7211,
      "nanor": 7212,
      "ethylene": 7213,
      "DS": 7214,
      "collision": 7215,
      "NH4": 7216,
      "##tz": 7217,
      "SF": 7218,
      "fluorescent": 7219,
      "Po": 7220,
      "longitudinal": 7221,
      "basal": 7222,
      "doc": 7223,
      "template": 7224,
      "ket": 7225,
      "succes": 7226,
      "disease": 7227,
      "##NO3": 7228,
      "RH": 7229,
      "progress": 7230,
      "Results": 7231,
      "incubation": 7232,
      "106": 7233,
      "complexity": 7234,
      "cycling": 7235,
      "setup": 7236,
      "condensation": 7237,
      "sediments": 7238,
      "hexagonal": 7239,
      "kcal": 7240,
      "hyst": 7241,
      "##OT": 7242,
      "replic": 7243,
      "flo": 7244,
      "nanoparticle": 7245,
      "vectors": 7246,
      "##ci": 7247,
      "affects": 7248,
      "##eta": 7249,
      "##III": 7250,
      "##ilities": 7251,
      "dram": 7252,
      "IS": 7253,
      "##balt": 7254,
      "inset": 7255,
      "titanium": 7256,
      "##ested": 7257,
      "memory": 7258,
      "##sibility": 7259,
      "crude": 7260,
      "ammonium": 7261,
      "platinum": 7262,
      "Gd": 7263,
      "##avi": 7264,
      "Even": 7265,
      "Their": 7266,
      "dual": 7267,
      "zirc": 7268,
      "antic": 7269,
      "RE": 7270,
      "enzymes": 7271,
      "##ocene": 7272,
      "controller": 7273,
      "spray": 7274,
      "linearly": 7275,
      "PR": 7276,
      "Gener": 7277,
      "ammonia": 7278,
      "workers": 7279,
      "giving": 7280,
      "inflamm": 7281,
      "charges": 7282,
      "##minis": 7283,
      "SM": 7284,
      "labeled": 7285,
      "droplets": 7286,
      "isotropic": 7287,
      "alkaline": 7288,
      "Op": 7289,
      "Fol": 7290,
      "machine": 7291,
      "beginning": 7292,
      "##GS": 7293,
      "##asts": 7294,
      "stationary": 7295,
      "##ky": 7296,
      "##amb": 7297,
      "curv": 7298,
      "2p": 7299,
      "coast": 7300,
      "pseudo": 7301,
      "slowly": 7302,
      "QDs": 7303,
      "##estim": 7304,
      "OR": 7305,
      "lign": 7306,
      "diver": 7307,
      "conclude": 7308,
      "##NO": 7309,
      "Reg": 7310,
      "tools": 7311,
      "fragments": 7312,
      "centered": 7313,
      "describes": 7314,
      "reliability": 7315,
      "Gre": 7316,
      "##isions": 7317,
      "orders": 7318,
      "##ymers": 7319,
      "##benz": 7320,
      "ng": 7321,
      "2−": 7322,
      "batch": 7323,
      "acquired": 7324,
      "##times": 7325,
      "rotational": 7326,
      "aryl": 7327,
      "ash": 7328,
      "##lip": 7329,
      "##ether": 7330,
      "arrangement": 7331,
      "pulses": 7332,
      "carbonyl": 7333,
      "##encing": 7334,
      "create": 7335,
      "##Bs": 7336,
      "KBr": 7337,
      "platform": 7338,
      "##35": 7339,
      "126": 7340,
      "##heres": 7341,
      "BA": 7342,
      "penetration": 7343,
      "DMF": 7344,
      "##oustic": 7345,
      "##rical": 7346,
      "luminescence": 7347,
      "104": 7348,
      "##tinu": 7349,
      "toler": 7350,
      "battery": 7351,
      "##itudes": 7352,
      "interpretation": 7353,
      "sn": 7354,
      "partition": 7355,
      "##izer": 7356,
      "overlap": 7357,
      "eight": 7358,
      "vehicle": 7359,
      "Despite": 7360,
      "##ban": 7361,
      "members": 7362,
      "ol": 7363,
      "##FS": 7364,
      "plasm": 7365,
      "##dge": 7366,
      "##OD": 7367,
      "##oming": 7368,
      "450": 7369,
      "NW": 7370,
      "##ps": 7371,
      "drugs": 7372,
      "##TP": 7373,
      "##pt": 7374,
      "disp": 7375,
      "##kin": 7376,
      "leak": 7377,
      "TP": 7378,
      "sulph": 7379,
      "disturb": 7380,
      "reflected": 7381,
      "ferro": 7382,
      "GPa": 7383,
      "vortex": 7384,
      "GaN": 7385,
      "transformed": 7386,
      "kW": 7387,
      "entry": 7388,
      "version": 7389,
      "##F2": 7390,
      "nanostructures": 7391,
      "approximate": 7392,
      "##flow": 7393,
      "sorption": 7394,
      "cobalt": 7395,
      "Considering": 7396,
      "bran": 7397,
      "protocol": 7398,
      "##agen": 7399,
      "explo": 7400,
      "mono": 7401,
      "filtration": 7402,
      "catalyzed": 7403,
      "equipment": 7404,
      "systematic": 7405,
      "μl": 7406,
      "apply": 7407,
      "pyrolysis": 7408,
      "University": 7409,
      "beams": 7410,
      "bacterial": 7411,
      "member": 7412,
      "perovsk": 7413,
      "micell": 7414,
      "##ln": 7415,
      "FI": 7416,
      "AS": 7417,
      "##02": 7418,
      "energe": 7419,
      "##oung": 7420,
      "doub": 7421,
      "controlling": 7422,
      "beh": 7423,
      "interference": 7424,
      "##YP": 7425,
      "illum": 7426,
      "cutting": 7427,
      "waters": 7428,
      "stere": 7429,
      "HC": 7430,
      "emphas": 7431,
      "practice": 7432,
      "countries": 7433,
      "ultim": 7434,
      "interl": 7435,
      "quadr": 7436,
      "dichlor": 7437,
      "degrees": 7438,
      "geometric": 7439,
      "EL": 7440,
      "Sb": 7441,
      "ole": 7442,
      "humidity": 7443,
      "5a": 7444,
      "outlet": 7445,
      "numerous": 7446,
      "survi": 7447,
      "opening": 7448,
      "compati": 7449,
      "conven": 7450,
      "##chlor": 7451,
      "##imetric": 7452,
      "##avage": 7453,
      "complicated": 7454,
      "hollow": 7455,
      "dense": 7456,
      "despite": 7457,
      "ER": 7458,
      "fragment": 7459,
      "veget": 7460,
      "DP": 7461,
      "##DP": 7462,
      "solute": 7463,
      "1N": 7464,
      "bridge": 7465,
      "MT": 7466,
      "owing": 7467,
      "otherwise": 7468,
      "wood": 7469,
      "PCR": 7470,
      "bare": 7471,
      "##FP": 7472,
      "HI": 7473,
      "module": 7474,
      "GS": 7475,
      "accordance": 7476,
      "association": 7477,
      "put": 7478,
      "Tables": 7479,
      "Ob": 7480,
      "cylindrical": 7481,
      "damping": 7482,
      "characterize": 7483,
      "tensor": 7484,
      "##bitr": 7485,
      "Cor": 7486,
      "ns": 7487,
      "reagent": 7488,
      "##DC": 7489,
      "unst": 7490,
      "words": 7491,
      "nutr": 7492,
      "fir": 7493,
      "virt": 7494,
      "modelling": 7495,
      "Model": 7496,
      "BC": 7497,
      "##lined": 7498,
      "favorable": 7499,
      "parent": 7500,
      "adequ": 7501,
      "tank": 7502,
      "##while": 7503,
      "##mer": 7504,
      "##uling": 7505,
      "continuously": 7506,
      "##hel": 7507,
      "1n": 7508,
      "DSC": 7509,
      "##idin": 7510,
      "##45": 7511,
      "##atical": 7512,
      "extra": 7513,
      "##lux": 7514,
      "processed": 7515,
      "etching": 7516,
      "specified": 7517,
      "dioxide": 7518,
      "2π": 7519,
      "##eresis": 7520,
      "##ectiveness": 7521,
      "##yrene": 7522,
      "consequently": 7523,
      "hydrothermal": 7524,
      "wastewater": 7525,
      "preser": 7526,
      "##ih": 7527,
      "##ancing": 7528,
      "fluids": 7529,
      "standards": 7530,
      "overcome": 7531,
      "operated": 7532,
      "mit": 7533,
      "big": 7534,
      "butyl": 7535,
      "antibody": 7536,
      "##assium": 7537,
      "##aft": 7538,
      "explored": 7539,
      "R2": 7540,
      "accurately": 7541,
      "##urface": 7542,
      "##atom": 7543,
      "Many": 7544,
      "##aul": 7545,
      "Only": 7546,
      "impurities": 7547,
      "##sivity": 7548,
      "nanowires": 7549,
      "coup": 7550,
      "##ategor": 7551,
      "##rea": 7552,
      "limitations": 7553,
      "shock": 7554,
      "extensively": 7555,
      "##000": 7556,
      "2014": 7557,
      "polymeric": 7558,
      "Cp": 7559,
      "##irable": 7560,
      "stainless": 7561,
      "entr": 7562,
      "TR": 7563,
      "learning": 7564,
      "mesoporous": 7565,
      "MWC": 7566,
      "##BP": 7567,
      "4b": 7568,
      "bur": 7569,
      "moments": 7570,
      "pyridine": 7571,
      "##inating": 7572,
      "sludge": 7573,
      "representing": 7574,
      "multil": 7575,
      "indeed": 7576,
      "inh": 7577,
      "impacts": 7578,
      "volumes": 7579,
      "pretre": 7580,
      "Pol": 7581,
      "Following": 7582,
      "##inking": 7583,
      "randomly": 7584,
      "own": 7585,
      "rank": 7586,
      "reagents": 7587,
      "rib": 7588,
      "conjugated": 7589,
      "HM": 7590,
      "Techn": 7591,
      "controls": 7592,
      "Mean": 7593,
      "##umptions": 7594,
      "vibrations": 7595,
      "homogen": 7596,
      "Ca2": 7597,
      "regul": 7598,
      "##31": 7599,
      "cloud": 7600,
      "stem": 7601,
      "2004": 7602,
      "##oy": 7603,
      "manif": 7604,
      "graf": 7605,
      "##34": 7606,
      "dilution": 7607,
      "careful": 7608,
      "spectrophot": 7609,
      "##otype": 7610,
      "packing": 7611,
      "##ands": 7612,
      "effectiveness": 7613,
      "specifically": 7614,
      "##F4": 7615,
      "express": 7616,
      "indirect": 7617,
      "split": 7618,
      "nanocryst": 7619,
      "##irr": 7620,
      "##BC": 7621,
      "prepare": 7622,
      "categor": 7623,
      "##achment": 7624,
      "adminis": 7625,
      "##akes": 7626,
      "6H": 7627,
      "##night": 7628,
      "interpreted": 7629,
      "##ower": 7630,
      "illustrates": 7631,
      "encaps": 7632,
      "##aterials": 7633,
      "mis": 7634,
      "arbitr": 7635,
      "##amin": 7636,
      "ME": 7637,
      "hysteresis": 7638,
      "sector": 7639,
      "user": 7640,
      "##iving": 7641,
      "Str": 7642,
      "acces": 7643,
      "RS": 7644,
      "pie": 7645,
      "irradiated": 7646,
      "biof": 7647,
      "##osan": 7648,
      "Cu2": 7649,
      "regulation": 7650,
      "Fe3O4": 7651,
      "##ares": 7652,
      "understood": 7653,
      "rect": 7654,
      "pet": 7655,
      "deviations": 7656,
      "##Ox": 7657,
      "layered": 7658,
      "look": 7659,
      "cust": 7660,
      "##agn": 7661,
      "Na2": 7662,
      "diameters": 7663,
      "macros": 7664,
      "MeOH": 7665,
      "instability": 7666,
      "promote": 7667,
      "severe": 7668,
      "##luid": 7669,
      "consisted": 7670,
      "scenarios": 7671,
      "targets": 7672,
      "validation": 7673,
      "##orphyr": 7674,
      "RF": 7675,
      "nanom": 7676,
      "minimal": 7677,
      "toxic": 7678,
      "operations": 7679,
      "gal": 7680,
      "hydroxide": 7681,
      "south": 7682,
      "why": 7683,
      "spectroscopic": 7684,
      "corrected": 7685,
      "manufacturing": 7686,
      "##esium": 7687,
      "simultaneous": 7688,
      "irre": 7689,
      "2003": 7690,
      "minimize": 7691,
      "protection": 7692,
      "rod": 7693,
      "##Cr": 7694,
      "##ustr": 7695,
      "else": 7696,
      "north": 7697,
      "maps": 7698,
      "##Mo": 7699,
      "##iqu": 7700,
      "stabilized": 7701,
      "date": 7702,
      "That": 7703,
      "##tok": 7704,
      "vacancies": 7705,
      "inclusion": 7706,
      "aggregate": 7707,
      "skin": 7708,
      "weights": 7709,
      "buck": 7710,
      "##tenu": 7711,
      "##38": 7712,
      "efforts": 7713,
      "geometries": 7714,
      "##ifying": 7715,
      "functionalized": 7716,
      "mort": 7717,
      "valu": 7718,
      "rol": 7719,
      "conclusions": 7720,
      "##ograms": 7721,
      "##uth": 7722,
      "##2O5": 7723,
      "kinds": 7724,
      "compact": 7725,
      "spot": 7726,
      "glasses": 7727,
      "cleavage": 7728,
      "##imental": 7729,
      "mathematical": 7730,
      "##mark": 7731,
      "verified": 7732,
      "months": 7733,
      "similarity": 7734,
      "toxicity": 7735,
      "acceleration": 7736,
      "##rite": 7737,
      "attain": 7738,
      "##IM": 7739,
      "##mann": 7740,
      "MgO": 7741,
      "downstream": 7742,
      "Ear": 7743,
      "policy": 7744,
      "##down": 7745,
      "object": 7746,
      "urban": 7747,
      "rules": 7748,
      "centre": 7749,
      "efficiently": 7750,
      "seism": 7751,
      "##nm": 7752,
      "foam": 7753,
      "2002": 7754,
      "recovered": 7755,
      "Electr": 7756,
      "inhibitor": 7757,
      "notice": 7758,
      "acoustic": 7759,
      "unstable": 7760,
      "preferred": 7761,
      "erosion": 7762,
      "house": 7763,
      "tendency": 7764,
      "##electro": 7765,
      "diffuse": 7766,
      "aligned": 7767,
      "increment": 7768,
      "assembled": 7769,
      "DE": 7770,
      "##apy": 7771,
      "inhibitors": 7772,
      "SL": 7773,
      "##what": 7774,
      "trigger": 7775,
      "goal": 7776,
      "segments": 7777,
      "##ux": 7778,
      "##odal": 7779,
      "##Zn": 7780,
      "##OC": 7781,
      "anisotropic": 7782,
      "daily": 7783,
      "conducting": 7784,
      "principal": 7785,
      "invest": 7786,
      "introduce": 7787,
      "renewable": 7788,
      "##acer": 7789,
      "improving": 7790,
      "employing": 7791,
      "furnace": 7792,
      "tissues": 7793,
      "##na": 7794,
      "cree": 7795,
      "warm": 7796,
      "soc": 7797,
      "refractive": 7798,
      "precipitate": 7799,
      "curvature": 7800,
      "exchang": 7801,
      "econom": 7802,
      "occupied": 7803,
      "incomp": 7804,
      "2θ": 7805,
      "MM": 7806,
      "discon": 7807,
      "propose": 7808,
      "##tructural": 7809,
      "discuss": 7810,
      "metall": 7811,
      "database": 7812,
      "preferential": 7813,
      "basin": 7814,
      "nominal": 7815,
      "##iven": 7816,
      "anodic": 7817,
      "dynam": 7818,
      "camer": 7819,
      "peptides": 7820,
      "potassium": 7821,
      "twice": 7822,
      "fem": 7823,
      "##N2": 7824,
      "explanation": 7825,
      "ordering": 7826,
      "##riefly": 7827,
      "dt": 7828,
      "Meth": 7829,
      "significance": 7830,
      "screening": 7831,
      "susceptibility": 7832,
      "##prising": 7833,
      "CE": 7834,
      "Given": 7835,
      "connection": 7836,
      "attenu": 7837,
      "somewhat": 7838,
      "coarse": 7839,
      "singlet": 7840,
      "boron": 7841,
      "##27": 7842,
      "##gu": 7843,
      "constraint": 7844,
      "arrays": 7845,
      "##Sn": 7846,
      "artific": 7847,
      "contacts": 7848,
      "abundance": 7849,
      "##liminary": 7850,
      "impurity": 7851,
      "Supporting": 7852,
      "##semble": 7853,
      "abundant": 7854,
      "Compound": 7855,
      "availability": 7856,
      "##ierarch": 7857,
      "##26": 7858,
      "NS": 7859,
      "##ortun": 7860,
      "triplet": 7861,
      "Comm": 7862,
      "assumptions": 7863,
      "Therm": 7864,
      "Anal": 7865,
      "overnight": 7866,
      "##iol": 7867,
      "bus": 7868,
      "dot": 7869,
      "texture": 7870,
      "yielded": 7871,
      "uncertainties": 7872,
      "polyp": 7873,
      "brain": 7874,
      "row": 7875,
      "sized": 7876,
      "System": 7877,
      "##ophilic": 7878,
      "weld": 7879,
      "##rehen": 7880,
      "aggl": 7881,
      "round": 7882,
      "Ltd": 7883,
      "##GC": 7884,
      "attack": 7885,
      "facilitate": 7886,
      "mapping": 7887,
      "upd": 7888,
      "iso": 7889,
      "##inding": 7890,
      "slab": 7891,
      "polarized": 7892,
      "apop": 7893,
      "ITO": 7894,
      "explore": 7895,
      "##osol": 7896,
      "glycer": 7897,
      "classes": 7898,
      "crystallinity": 7899,
      "insp": 7900,
      "##wards": 7901,
      "supplied": 7902,
      "cyan": 7903,
      "##tt": 7904,
      "sputtering": 7905,
      "wavelengths": 7906,
      "Previous": 7907,
      "shr": 7908,
      "stacking": 7909,
      "2001": 7910,
      "bioc": 7911,
      "simulate": 7912,
      "deduc": 7913,
      "remarkable": 7914,
      "ultrasonic": 7915,
      "HD": 7916,
      "polyn": 7917,
      "##itively": 7918,
      "meaning": 7919,
      "alg": 7920,
      "synch": 7921,
      "##olysis": 7922,
      "##OL": 7923,
      "hetero": 7924,
      "substantially": 7925,
      "##eric": 7926,
      "diffract": 7927,
      "##omial": 7928,
      "##1−x": 7929,
      "physi": 7930,
      "terr": 7931,
      "##isition": 7932,
      "vessel": 7933,
      "induction": 7934,
      "Imp": 7935,
      "##enge": 7936,
      "creep": 7937,
      "A1": 7938,
      "##acryl": 7939,
      "Bl": 7940,
      "flood": 7941,
      "dies": 7942,
      "DR": 7943,
      "chemicals": 7944,
      "##outhern": 7945,
      "trap": 7946,
      "fuels": 7947,
      "mouse": 7948,
      "table": 7949,
      "infinite": 7950,
      "##atment": 7951,
      "requirement": 7952,
      "behaviors": 7953,
      "instant": 7954,
      "restricted": 7955,
      "thermally": 7956,
      "modulation": 7957,
      "Sw": 7958,
      "vic": 7959,
      "DI": 7960,
      "##ethylene": 7961,
      "##dynamic": 7962,
      "sense": 7963,
      "##DNA": 7964,
      "spectrometry": 7965,
      "##28": 7966,
      "closer": 7967,
      "Bu": 7968,
      "accompanied": 7969,
      "mot": 7970,
      "community": 7971,
      "differentiation": 7972,
      "experi": 7973,
      "##rich": 7974,
      "service": 7975,
      "electrom": 7976,
      "advanced": 7977,
      "##aves": 7978,
      "deion": 7979,
      "kHz": 7980,
      "Equ": 7981,
      "conductive": 7982,
      "ascribed": 7983,
      "simplified": 7984,
      "LU": 7985,
      "##osites": 7986,
      "SB": 7987,
      "thermo": 7988,
      "GaAs": 7989,
      "spread": 7990,
      "seven": 7991,
      "precise": 7992,
      "influences": 7993,
      "##tized": 7994,
      "piec": 7995,
      "solving": 7996,
      "gau": 7997,
      "##cetic": 7998,
      "crystallographic": 7999,
      "spring": 8000,
      "electroph": 8001,
      "BM": 8002,
      "##idth": 8003,
      "##egrad": 8004,
      "##73": 8005,
      "Once": 8006,
      "Col": 8007,
      "##itosan": 8008,
      "crop": 8009,
      "my": 8010,
      "pollut": 8011,
      "intermolecular": 8012,
      "isotope": 8013,
      "concer": 8014,
      "pipe": 8015,
      "epoxy": 8016,
      "marine": 8017,
      "##sen": 8018,
      "til": 8019,
      "xi": 8020,
      "dyes": 8021,
      "##29": 8022,
      "##ered": 8023,
      "##44": 8024,
      "yielding": 8025,
      "capt": 8026,
      "crossl": 8027,
      "##olve": 8028,
      "hierarch": 8029,
      "theor": 8030,
      "confirms": 8031,
      "enthalpy": 8032,
      "runs": 8033,
      "##AS": 8034,
      "colour": 8035,
      "visc": 8036,
      "##oma": 8037,
      "feedback": 8038,
      "bright": 8039,
      "perovskite": 8040,
      "ICP": 8041,
      "##Ns": 8042,
      "history": 8043,
      "coli": 8044,
      "acquisition": 8045,
      "LE": 8046,
      "amide": 8047,
      "spheres": 8048,
      "##igu": 8049,
      "exception": 8050,
      "oscillations": 8051,
      "Ev": 8052,
      "recognition": 8053,
      "comprehen": 8054,
      "Samples": 8055,
      "construct": 8056,
      "convection": 8057,
      "manip": 8058,
      "##berg": 8059,
      "Gl": 8060,
      "##matic": 8061,
      "candidate": 8062,
      "S4": 8063,
      "starts": 8064,
      "applicable": 8065,
      "drawn": 8066,
      "##width": 8067,
      "Zh": 8068,
      "rub": 8069,
      "Bas": 8070,
      "##polar": 8071,
      "Dep": 8072,
      "iii": 8073,
      "##titive": 8074,
      "NO2": 8075,
      "1s": 8076,
      "##inge": 8077,
      "Par": 8078,
      "##olation": 8079,
      "formal": 8080,
      "transf": 8081,
      "B3": 8082,
      "resonant": 8083,
      "clar": 8084,
      "##alt": 8085,
      "dislocations": 8086,
      "SnO2": 8087,
      "generating": 8088,
      "apparatus": 8089,
      "fluxes": 8090,
      "##uker": 8091,
      "##then": 8092,
      "elsewhere": 8093,
      "duc": 8094,
      "##azine": 8095,
      "ET": 8096,
      "##ogram": 8097,
      "defici": 8098,
      "tunneling": 8099,
      "##ocyan": 8100,
      "efficiencies": 8101,
      "displace": 8102,
      "collap": 8103,
      "fire": 8104,
      "modifications": 8105,
      "backb": 8106,
      "##ili": 8107,
      "##B2": 8108,
      "hydraul": 8109,
      "##apeu": 8110,
      "Bruker": 8111,
      "recrystall": 8112,
      "##atase": 8113,
      "separately": 8114,
      "TN": 8115,
      "##ests": 8116,
      "intercal": 8117,
      "##orr": 8118,
      "stated": 8119,
      "frequently": 8120,
      "ceramics": 8121,
      "##fall": 8122,
      "acetic": 8123,
      "liquids": 8124,
      "build": 8125,
      "##log": 8126,
      "##GE": 8127,
      "##In": 8128,
      "##hemistry": 8129,
      "135": 8130,
      "nuclei": 8131,
      "enables": 8132,
      "idea": 8133,
      "actually": 8134,
      "thor": 8135,
      "CeO2": 8136,
      "LI": 8137,
      "assisted": 8138,
      "river": 8139,
      "implic": 8140,
      "lact": 8141,
      "aqu": 8142,
      "indent": 8143,
      "Of": 8144,
      "6a": 8145,
      "supporting": 8146,
      "mang": 8147,
      "dimensionless": 8148,
      "##versely": 8149,
      "invari": 8150,
      "IP": 8151,
      "Tc": 8152,
      "##ames": 8153,
      "##uli": 8154,
      "Hydro": 8155,
      "benefits": 8156,
      "social": 8157,
      "##imethyl": 8158,
      "reaching": 8159,
      "CdS": 8160,
      "sequential": 8161,
      "EI": 8162,
      "##arities": 8163,
      "##ME": 8164,
      "technical": 8165,
      "##opol": 8166,
      "started": 8167,
      "refined": 8168,
      "sides": 8169,
      "classified": 8170,
      "summer": 8171,
      "inversion": 8172,
      "ocean": 8173,
      "crust": 8174,
      "##nat": 8175,
      "challenge": 8176,
      "distortion": 8177,
      "tin": 8178,
      "ferromagnetic": 8179,
      "perturbation": 8180,
      "##75": 8181,
      "##ee": 8182,
      "enab": 8183,
      "his": 8184,
      "##arge": 8185,
      "packed": 8186,
      "regional": 8187,
      "match": 8188,
      "alignment": 8189,
      "turbulent": 8190,
      "##LE": 8191,
      "combinations": 8192,
      "schemes": 8193,
      "stoichiometric": 8194,
      "benzyl": 8195,
      "blank": 8196,
      "port": 8197,
      "##isher": 8198,
      "defl": 8199,
      "cationic": 8200,
      "##iness": 8201,
      "performances": 8202,
      "evaporated": 8203,
      "Vis": 8204,
      "merc": 8205,
      "la": 8206,
      "##fol": 8207,
      "metast": 8208,
      "##ocytes": 8209,
      "deposit": 8210,
      "HRMS": 8211,
      "mer": 8212,
      "##ocal": 8213,
      "cum": 8214,
      "Form": 8215,
      "genetic": 8216,
      "indices": 8217,
      "##rel": 8218,
      "absorbed": 8219,
      "prolif": 8220,
      "cf": 8221,
      "Yield": 8222,
      "expressions": 8223,
      "her": 8224,
      "native": 8225,
      "Next": 8226,
      "neighb": 8227,
      "##agr": 8228,
      "fusion": 8229,
      "stabilization": 8230,
      "aging": 8231,
      "refinement": 8232,
      "confined": 8233,
      "generalized": 8234,
      "2015": 8235,
      "Sol": 8236,
      "ZrO2": 8237,
      "ka": 8238,
      "dissipation": 8239,
      "##ucle": 8240,
      "##ken": 8241,
      "ΔE": 8242,
      "discrep": 8243,
      "drain": 8244,
      "##elet": 8245,
      "##ulomb": 8246,
      "acetyl": 8247,
      "weeks": 8248,
      "analyzer": 8249,
      "strip": 8250,
      "interact": 8251,
      "transcription": 8252,
      "branc": 8253,
      "exactly": 8254,
      "##roup": 8255,
      "Fe2O3": 8256,
      "TD": 8257,
      "insight": 8258,
      "glut": 8259,
      "##ighting": 8260,
      "pit": 8261,
      "P3": 8262,
      "##osomes": 8263,
      "T1": 8264,
      "##tite": 8265,
      "101": 8266,
      "Mul": 8267,
      "animals": 8268,
      "SV": 8269,
      "diagonal": 8270,
      "purposes": 8271,
      "##onate": 8272,
      "hold": 8273,
      "chip": 8274,
      "ec": 8275,
      "batteries": 8276,
      "objects": 8277,
      "operational": 8278,
      "tan": 8279,
      "##oints": 8280,
      "tree": 8281,
      "MoS2": 8282,
      "qualitative": 8283,
      "polys": 8284,
      "##ochastic": 8285,
      "liver": 8286,
      "weighted": 8287,
      "##ondri": 8288,
      "effort": 8289,
      "yl": 8290,
      "##licity": 8291,
      "sliding": 8292,
      "covalent": 8293,
      "retained": 8294,
      "##PO": 8295,
      "OC": 8296,
      "experience": 8297,
      "##±0": 8298,
      "hydrogenation": 8299,
      "precipitates": 8300,
      "vinyl": 8301,
      "roughly": 8302,
      "Det": 8303,
      "BD": 8304,
      "extreme": 8305,
      "flexibility": 8306,
      "Med": 8307,
      "DH": 8308,
      "RO": 8309,
      "quickly": 8310,
      "##obenz": 8311,
      "TGA": 8312,
      "Val": 8313,
      "squares": 8314,
      "shallow": 8315,
      "hydration": 8316,
      "nanocomposites": 8317,
      "nanocrystals": 8318,
      "permit": 8319,
      "##lat": 8320,
      "cracking": 8321,
      "transparent": 8322,
      "spont": 8323,
      "TG": 8324,
      "RP": 8325,
      "populations": 8326,
      "serve": 8327,
      "piezo": 8328,
      "hardening": 8329,
      "cytotox": 8330,
      "barriers": 8331,
      "anomal": 8332,
      "sound": 8333,
      "##ophen": 8334,
      "Min": 8335,
      "##engthen": 8336,
      "hydraulic": 8337,
      "illumination": 8338,
      "causing": 8339,
      "neu": 8340,
      "isomers": 8341,
      "depletion": 8342,
      "##iline": 8343,
      "##Ge": 8344,
      "beneficial": 8345,
      "monomers": 8346,
      "##isons": 8347,
      "denote": 8348,
      "##othermic": 8349,
      "drops": 8350,
      "chitosan": 8351,
      "suspended": 8352,
      "Reyn": 8353,
      "##ople": 8354,
      "##Ts": 8355,
      "Not": 8356,
      "feasible": 8357,
      "Pe": 8358,
      "eigenval": 8359,
      "2C": 8360,
      "biod": 8361,
      "Kα": 8362,
      "reflux": 8363,
      "resistant": 8364,
      "BSA": 8365,
      "minerals": 8366,
      "camera": 8367,
      "passive": 8368,
      "##rie": 8369,
      "Mar": 8370,
      "Instr": 8371,
      "suppress": 8372,
      "bubbles": 8373,
      "##go": 8374,
      "##asks": 8375,
      "##F3": 8376,
      "##53": 8377,
      "intercon": 8378,
      "scal": 8379,
      "vacancy": 8380,
      "macroscopic": 8381,
      "baseline": 8382,
      "individuals": 8383,
      "circum": 8384,
      "transl": 8385,
      "1999": 8386,
      "probes": 8387,
      "conductance": 8388,
      "BN": 8389,
      "decades": 8390,
      "plateau": 8391,
      "HOMO": 8392,
      "##dt": 8393,
      "##ester": 8394,
      "inputs": 8395,
      "oz": 8396,
      "nanofib": 8397,
      "cast": 8398,
      "NH2": 8399,
      "bridging": 8400,
      "##anese": 8401,
      "103": 8402,
      "catalysis": 8403,
      "UK": 8404,
      "##occ": 8405,
      "##HM": 8406,
      "##ucid": 8407,
      "##quin": 8408,
      "discontinu": 8409,
      "##tivated": 8410,
      "ranged": 8411,
      "immobilized": 8412,
      "proxim": 8413,
      "deionized": 8414,
      "ways": 8415,
      "artificial": 8416,
      "realized": 8417,
      "Mill": 8418,
      "##rose": 8419,
      "Reynolds": 8420,
      "acts": 8421,
      "##ieties": 8422,
      "document": 8423,
      "alkali": 8424,
      "insertion": 8425,
      "quenc": 8426,
      "5b": 8427,
      "ellip": 8428,
      "##tivities": 8429,
      "intermediates": 8430,
      "P2": 8431,
      "##Li": 8432,
      "∼1": 8433,
      "stochastic": 8434,
      "North": 8435,
      "broadening": 8436,
      "conservation": 8437,
      "nitro": 8438,
      "buildings": 8439,
      "trapped": 8440,
      "neural": 8441,
      "opportun": 8442,
      "pall": 8443,
      "statistically": 8444,
      "photoelectr": 8445,
      "weather": 8446,
      "immers": 8447,
      "irrever": 8448,
      "leg": 8449,
      "contamination": 8450,
      "hydrodynamic": 8451,
      "calibrated": 8452,
      "lys": 8453,
      "##FE": 8454,
      "##omethane": 8455,
      "enable": 8456,
      "##ochondri": 8457,
      "imidaz": 8458,
      "localization": 8459,
      "carboxylic": 8460,
      "##endix": 8461,
      "Energy": 8462,
      "displacements": 8463,
      "hep": 8464,
      "contrary": 8465,
      "2c": 8466,
      "filling": 8467,
      "favour": 8468,
      "##aken": 8469,
      "polynomial": 8470,
      "NiO": 8471,
      "week": 8472,
      "segreg": 8473,
      "illustrate": 8474,
      "DT": 8475,
      "oven": 8476,
      "##ush": 8477,
      "geometrical": 8478,
      "acting": 8479,
      "EA": 8480,
      "papers": 8481,
      "utilization": 8482,
      "vap": 8483,
      "##cing": 8484,
      "survey": 8485,
      "##crim": 8486,
      "reflectance": 8487,
      "Its": 8488,
      "##opes": 8489,
      "##H5": 8490,
      "marg": 8491,
      "pool": 8492,
      "weaker": 8493,
      "##totic": 8494,
      "fatty": 8495,
      "cyclohex": 8496,
      "disk": 8497,
      "Go": 8498,
      "fair": 8499,
      "neighboring": 8500,
      "digital": 8501,
      "##Na": 8502,
      "milling": 8503,
      "##65": 8504,
      "mp": 8505,
      "twin": 8506,
      "viscous": 8507,
      "obtaining": 8508,
      "reflections": 8509,
      "##olet": 8510,
      "accep": 8511,
      "old": 8512,
      "copolymers": 8513,
      "morphologies": 8514,
      "transmit": 8515,
      "porphyr": 8516,
      "harves": 8517,
      "Generally": 8518,
      "turbine": 8519,
      "##ormal": 8520,
      "reflects": 8521,
      "verify": 8522,
      "analogous": 8523,
      "additive": 8524,
      "170": 8525,
      "##ishes": 8526,
      "enrich": 8527,
      "communication": 8528,
      "##ifier": 8529,
      "rectangular": 8530,
      "tends": 8531,
      "124": 8532,
      "##Pt": 8533,
      "C60": 8534,
      "##otal": 8535,
      "Rep": 8536,
      "Yb": 8537,
      "550": 8538,
      "faults": 8539,
      "imag": 8540,
      "##eff": 8541,
      "sun": 8542,
      "##istine": 8543,
      "##mm": 8544,
      "seismic": 8545,
      "obviously": 8546,
      "actu": 8547,
      "tax": 8548,
      "MF": 8549,
      "record": 8550,
      "RMS": 8551,
      "Meanwhile": 8552,
      "attracted": 8553,
      "##x2": 8554,
      "manufactur": 8555,
      "naph": 8556,
      "ten": 8557,
      "lies": 8558,
      "Red": 8559,
      "1998": 8560,
      "glycol": 8561,
      "plus": 8562,
      "monot": 8563,
      "fed": 8564,
      "Pub": 8565,
      "##ourn": 8566,
      "##riched": 8567,
      "void": 8568,
      "137": 8569,
      "Tb": 8570,
      "trif": 8571,
      "colloidal": 8572,
      "sintered": 8573,
      "quin": 8574,
      "ID": 8575,
      "##ugh": 8576,
      "extracts": 8577,
      "sorb": 8578,
      "mirr": 8579,
      "interpol": 8580,
      "concerning": 8581,
      "##ember": 8582,
      "diesel": 8583,
      "elucid": 8584,
      "##hydrogen": 8585,
      "micelles": 8586,
      "Dr": 8587,
      "swelling": 8588,
      "uniformly": 8589,
      "dust": 8590,
      "disordered": 8591,
      "satell": 8592,
      "gravity": 8593,
      "Sec": 8594,
      "##×10−": 8595,
      "swe": 8596,
      "proliferation": 8597,
      "##pyr": 8598,
      "regarded": 8599,
      "Accordingly": 8600,
      "##TiO3": 8601,
      "microf": 8602,
      "preliminary": 8603,
      "##oting": 8604,
      "degen": 8605,
      "charging": 8606,
      "describing": 8607,
      "calculating": 8608,
      "extend": 8609,
      "arbitrary": 8610,
      "numerically": 8611,
      "contour": 8612,
      "National": 8613,
      "architecture": 8614,
      "distinguish": 8615,
      "##aturated": 8616,
      "offers": 8617,
      "neglected": 8618,
      "muscle": 8619,
      "steric": 8620,
      "freed": 8621,
      "##Pb": 8622,
      "Trans": 8623,
      "##oidal": 8624,
      "backbone": 8625,
      "##HT": 8626,
      "bit": 8627,
      "##ato": 8628,
      "##gl": 8629,
      "blend": 8630,
      "Before": 8631,
      "microbial": 8632,
      "virus": 8633,
      "microscopic": 8634,
      "Non": 8635,
      "Δt": 8636,
      "winter": 8637,
      "tight": 8638,
      "##isp": 8639,
      "never": 8640,
      "reconstruction": 8641,
      "turbulence": 8642,
      "slower": 8643,
      "beads": 8644,
      "ri": 8645,
      "##isper": 8646,
      "FW": 8647,
      "1c": 8648,
      "##tenance": 8649,
      "believed": 8650,
      "OD": 8651,
      "foss": 8652,
      "operators": 8653,
      "A2": 8654,
      "##oring": 8655,
      "##55": 8656,
      "##ovol": 8657,
      "nanoshe": 8658,
      "satisfact": 8659,
      "leakage": 8660,
      "##e−": 8661,
      "inhom": 8662,
      "mitochondri": 8663,
      "happ": 8664,
      "∼0": 8665,
      "microm": 8666,
      "Gu": 8667,
      "##oor": 8668,
      "Young": 8669,
      "gradients": 8670,
      "##cin": 8671,
      "performing": 8672,
      "traff": 8673,
      "agric": 8674,
      "quantify": 8675,
      "##eper": 8676,
      "cores": 8677,
      "##arbons": 8678,
      "##opropyl": 8679,
      "nearest": 8680,
      "reform": 8681,
      "##activation": 8682,
      "moieties": 8683,
      "desirable": 8684,
      "##aer": 8685,
      "negatively": 8686,
      "combining": 8687,
      "quadrup": 8688,
      "thought": 8689,
      "##agon": 8690,
      "therapeu": 8691,
      "minutes": 8692,
      "discrim": 8693,
      "micrograph": 8694,
      "enriched": 8695,
      "Appendix": 8696,
      "trapping": 8697,
      "pixel": 8698,
      "initiation": 8699,
      "replacement": 8700,
      "NE": 8701,
      "hydroly": 8702,
      "efflu": 8703,
      "equival": 8704,
      "freedom": 8705,
      "keV": 8706,
      "##cript": 8707,
      "strati": 8708,
      "resource": 8709,
      "##atite": 8710,
      "##∑i": 8711,
      "fro": 8712,
      "matching": 8713,
      "##estic": 8714,
      "motor": 8715,
      "held": 8716,
      "lens": 8717,
      "magnesium": 8718,
      "volatile": 8719,
      "NF": 8720,
      "eqn": 8721,
      "scr": 8722,
      "signaling": 8723,
      "afford": 8724,
      "titr": 8725,
      "substituents": 8726,
      "commercially": 8727,
      "assays": 8728,
      "induces": 8729,
      "##fication": 8730,
      "acceptable": 8731,
      "pristine": 8732,
      "radio": 8733,
      "##nov": 8734,
      "##36": 8735,
      "##Cl4": 8736,
      "haz": 8737,
      "orientations": 8738,
      "intramolecular": 8739,
      "FM": 8740,
      "exciton": 8741,
      "QD": 8742,
      "rej": 8743,
      "normally": 8744,
      "pointed": 8745,
      "people": 8746,
      "FC": 8747,
      "##Sb": 8748,
      "radiative": 8749,
      "recognized": 8750,
      "macro": 8751,
      "SDS": 8752,
      "anth": 8753,
      "##ynthesis": 8754,
      "interlayer": 8755,
      "soils": 8756,
      "photod": 8757,
      "mal": 8758,
      "Green": 8759,
      "asymp": 8760,
      "fibre": 8761,
      "introducing": 8762,
      "##enyl": 8763,
      "298": 8764,
      "compute": 8765,
      "##pi": 8766,
      "##elt": 8767,
      "employ": 8768,
      "quantified": 8769,
      "ho": 8770,
      "fish": 8771,
      "validated": 8772,
      "maintenance": 8773,
      "forec": 8774,
      "Fe2": 8775,
      "boiling": 8776,
      "sched": 8777,
      "##olving": 8778,
      "multilayer": 8779,
      "##Nb": 8780,
      "TB": 8781,
      "##itives": 8782,
      "subm": 8783,
      "coil": 8784,
      "wild": 8785,
      "resonances": 8786,
      "jump": 8787,
      "##emic": 8788,
      "chemically": 8789,
      "directed": 8790,
      "mild": 8791,
      "##ohydr": 8792,
      "nanocomposite": 8793,
      "buckling": 8794,
      "COD": 8795,
      "arise": 8796,
      "ternary": 8797,
      "rearr": 8798,
      "respond": 8799,
      "##tosis": 8800,
      "extrap": 8801,
      "isotherm": 8802,
      "Sea": 8803,
      "x1": 8804,
      "death": 8805,
      "mole": 8806,
      "Hf": 8807,
      "##ysical": 8808,
      "##iph": 8809,
      "ends": 8810,
      "90°": 8811,
      "isotopic": 8812,
      "comprehensive": 8813,
      "Met": 8814,
      "Electro": 8815,
      "NOx": 8816,
      "generator": 8817,
      "metric": 8818,
      "NR": 8819,
      "EF": 8820,
      "220": 8821,
      "principles": 8822,
      "##changed": 8823,
      "##HP": 8824,
      "Py": 8825,
      "indicator": 8826,
      "stations": 8827,
      "glycerol": 8828,
      "##LYP": 8829,
      "##stand": 8830,
      "paths": 8831,
      "##phosph": 8832,
      "rotating": 8833,
      "addressed": 8834,
      "BT": 8835,
      "Subsequently": 8836,
      "statistics": 8837,
      "package": 8838,
      "##EL": 8839,
      "##urg": 8840,
      "##illed": 8841,
      "##actor": 8842,
      "realistic": 8843,
      "##oupl": 8844,
      "K2": 8845,
      "colon": 8846,
      "EDS": 8847,
      "##ophene": 8848,
      "microsp": 8849,
      "##abatic": 8850,
      "##−x": 8851,
      "Different": 8852,
      "##ike": 8853,
      "supernat": 8854,
      "##king": 8855,
      "##bo": 8856,
      "electrolytes": 8857,
      "##tro": 8858,
      "dehydr": 8859,
      "resultant": 8860,
      "##fortun": 8861,
      "piezoelectric": 8862,
      "benefit": 8863,
      "##imes": 8864,
      "136": 8865,
      "L2": 8866,
      "sectional": 8867,
      "photos": 8868,
      "isothermal": 8869,
      "ij": 8870,
      "installed": 8871,
      "##Zr": 8872,
      "PANI": 8873,
      "animal": 8874,
      "LO": 8875,
      "cathodic": 8876,
      "irreg": 8877,
      "vicinity": 8878,
      "subtr": 8879,
      "##orth": 8880,
      "adduc": 8881,
      "bim": 8882,
      "forest": 8883,
      "acryl": 8884,
      "nM": 8885,
      "orthog": 8886,
      "##otential": 8887,
      "2d": 8888,
      "##01": 8889,
      "intra": 8890,
      "##inger": 8891,
      "neurons": 8892,
      "Analysis": 8893,
      "##ycin": 8894,
      "##ectic": 8895,
      "##ylated": 8896,
      "inflammatory": 8897,
      "adequate": 8898,
      "mounted": 8899,
      "Max": 8900,
      "1200": 8901,
      "##ada": 8902,
      "dots": 8903,
      "108": 8904,
      "comes": 8905,
      "equilibr": 8906,
      "disrup": 8907,
      "multipl": 8908,
      "##ologically": 8909,
      "##O6": 8910,
      "spectrophotometer": 8911,
      "benzo": 8912,
      "supplement": 8913,
      "ND": 8914,
      "smallest": 8915,
      "Water": 8916,
      "bilayer": 8917,
      "travel": 8918,
      "Carlo": 8919,
      "FR": 8920,
      "123": 8921,
      "quantification": 8922,
      "##othermal": 8923,
      "reactors": 8924,
      "item": 8925,
      "##iers": 8926,
      "collagen": 8927,
      "##gst": 8928,
      "palladium": 8929,
      "supr": 8930,
      "enzymatic": 8931,
      "thicknesses": 8932,
      "109": 8933,
      "138": 8934,
      "diffractometer": 8935,
      "satisfy": 8936,
      "Stud": 8937,
      "##oped": 8938,
      "reinforce": 8939,
      "flask": 8940,
      "115": 8941,
      "picture": 8942,
      "figures": 8943,
      "incidence": 8944,
      "participants": 8945,
      "P1": 8946,
      "##ectory": 8947,
      "##ele": 8948,
      "T2": 8949,
      "none": 8950,
      "positively": 8951,
      "Now": 8952,
      "phosphorus": 8953,
      "lignin": 8954,
      "##ymb": 8955,
      "polycrystalline": 8956,
      "Nature": 8957,
      "##fortunately": 8958,
      "let": 8959,
      "##bar": 8960,
      "dataset": 8961,
      "unchanged": 8962,
      "ord": 8963,
      "##ogenesis": 8964,
      "mL−1": 8965,
      "Dec": 8966,
      "Monte": 8967,
      "subjects": 8968,
      "volumetric": 8969,
      "BET": 8970,
      "octahedral": 8971,
      "took": 8972,
      "thorough": 8973,
      "lost": 8974,
      "prin": 8975,
      "Instit": 8976,
      "##lution": 8977,
      "##forward": 8978,
      "##LP": 8979,
      "##42": 8980,
      "northern": 8981,
      "chloroform": 8982,
      "Cal": 8983,
      "River": 8984,
      "Ke": 8985,
      "Upon": 8986,
      "isotherms": 8987,
      "##uary": 8988,
      "##ients": 8989,
      "##uran": 8990,
      "amplitudes": 8991,
      "antibodies": 8992,
      "ves": 8993,
      "TOF": 8994,
      "Kr": 8995,
      "limitation": 8996,
      "oste": 8997,
      "enter": 8998,
      "planning": 8999,
      "axes": 9000,
      "##tein": 9001,
      "coherent": 9002,
      "##NR": 9003,
      "receptors": 9004,
      "PMMA": 9005,
      "notic": 9006,
      "##∂t": 9007,
      "hydrocarbons": 9008,
      "meet": 9009,
      "physics": 9010,
      "trajectory": 9011,
      "aluminium": 9012,
      "1997": 9013,
      "surprising": 9014,
      "SO2": 9015,
      "LUMO": 9016,
      "strengthen": 9017,
      "European": 9018,
      "FS": 9019,
      "gels": 9020,
      "independently": 9021,
      "nanorods": 9022,
      "weakly": 9023,
      "elimination": 9024,
      "iner": 9025,
      "##ascular": 9026,
      "immersed": 9027,
      "photoelectron": 9028,
      "washing": 9029,
      "##istent": 9030,
      "similarly": 9031,
      "photocatalyst": 9032,
      "calcination": 9033,
      "mart": 9034,
      "million": 9035,
      "arising": 9036,
      "ly": 9037,
      "affecting": 9038,
      "##ulative": 9039,
      "tough": 9040,
      "##Vs": 9041,
      "analyte": 9042,
      "journ": 9043,
      "confidence": 9044,
      "drift": 9045,
      "Cre": 9046,
      "DB": 9047,
      "Coulomb": 9048,
      "analytes": 9049,
      "calor": 9050,
      "##ipher": 9051,
      "South": 9052,
      "gaps": 9053,
      "anhydro": 9054,
      "dimin": 9055,
      "refrig": 9056,
      "zircon": 9057,
      "transduc": 9058,
      "starch": 9059,
      "cultured": 9060,
      "##band": 9061,
      "meV": 9062,
      "morphological": 9063,
      "##ido": 9064,
      "CHCl3": 9065,
      "##vation": 9066,
      "ATP": 9067,
      "inert": 9068,
      "dm": 9069,
      "##rought": 9070,
      "interconn": 9071,
      "##anthan": 9072,
      "modern": 9073,
      "##ignific": 9074,
      "##tron": 9075,
      "##unc": 9076,
      "rats": 9077,
      "schematic": 9078,
      "133": 9079,
      "suppressed": 9080,
      "##after": 9081,
      "##ogenous": 9082,
      "rainfall": 9083,
      "ΔH": 9084,
      "aust": 9085,
      "##azole": 9086,
      "guar": 9087,
      "southern": 9088,
      "od": 9089,
      "##OAc": 9090,
      "hydrocarbon": 9091,
      "RC": 9092,
      "amin": 9093,
      "tungst": 9094,
      "vegetation": 9095,
      "wells": 9096,
      "lamell": 9097,
      "branch": 9098,
      "ensemble": 9099,
      "simplicity": 9100,
      "##amma": 9101,
      "completed": 9102,
      "kin": 9103,
      "131": 9104,
      "peroxide": 9105,
      "substances": 9106,
      "Experimental": 9107,
      "##48": 9108,
      "##Bu": 9109,
      "agglomer": 9110,
      "PVA": 9111,
      "filters": 9112,
      "presum": 9113,
      "EP": 9114,
      "##omeric": 9115,
      "physiological": 9116,
      "##titial": 9117,
      "##Ls": 9118,
      "Ln": 9119,
      "titan": 9120,
      "##Gs": 9121,
      "sampled": 9122,
      "photovol": 9123,
      "oscillation": 9124,
      "m−2": 9125,
      "theoretically": 9126,
      "determines": 9127,
      "mRNA": 9128,
      "107": 9129,
      "calcined": 9130,
      "diverse": 9131,
      "emit": 9132,
      "µm": 9133,
      "vehicles": 9134,
      "arises": 9135,
      "##L2": 9136,
      "competitive": 9137,
      "prices": 9138,
      "anch": 9139,
      "usual": 9140,
      "Calcd": 9141,
      "##urry": 9142,
      "fossil": 9143,
      "##vis": 9144,
      "attempt": 9145,
      "dramatically": 9146,
      "intracellular": 9147,
      "##agg": 9148,
      "##isson": 9149,
      "O3": 9150,
      "##aceu": 9151,
      "initiated": 9152,
      "##pective": 9153,
      "encoun": 9154,
      "wafer": 9155,
      "mism": 9156,
      "deduced": 9157,
      "loops": 9158,
      "##oluminescence": 9159,
      "##Ph": 9160,
      "CuO": 9161,
      "##anned": 9162,
      "##load": 9163,
      "projects": 9164,
      "shel": 9165,
      "leaching": 9166,
      "L1": 9167,
      "filam": 9168,
      "monocl": 9169,
      "traffic": 9170,
      "EPR": 9171,
      "lamp": 9172,
      "##opyr": 9173,
      "diethyl": 9174,
      "running": 9175,
      "EG": 9176,
      "comparisons": 9177,
      "ferroelectric": 9178,
      "capacities": 9179,
      "Partic": 9180,
      "libr": 9181,
      "passi": 9182,
      "##RS": 9183,
      "survival": 9184,
      "pig": 9185,
      "SU": 9186,
      "imposed": 9187,
      "2A": 9188,
      "constrained": 9189,
      "scans": 9190,
      "regeneration": 9191,
      "captured": 9192,
      "6b": 9193,
      "Figures": 9194,
      "photons": 9195,
      "organization": 9196,
      "bench": 9197,
      "nozz": 9198,
      "antifer": 9199,
      "powerful": 9200,
      "##uss": 9201,
      "##R2": 9202,
      "brown": 9203,
      "interacting": 9204,
      "scope": 9205,
      "dispersive": 9206,
      "collapse": 9207,
      "##eller": 9208,
      "##iltration": 9209,
      "diversity": 9210,
      "quantitatively": 9211,
      "span": 9212,
      "share": 9213,
      "exh": 9214,
      "interior": 9215,
      "sonic": 9216,
      "contributes": 9217,
      "guid": 9218,
      "##yne": 9219,
      "TL": 9220,
      "##ecu": 9221,
      "cry": 9222,
      "##kel": 9223,
      "derive": 9224,
      "##ignificant": 9225,
      "austen": 9226,
      "##lates": 9227,
      "10−3": 9228,
      "proven": 9229,
      "interstitial": 9230,
      "##Sr": 9231,
      "inhibited": 9232,
      "eventually": 9233,
      "cooper": 9234,
      "134": 9235,
      "arri": 9236,
      "sa": 9237,
      "##VD": 9238,
      "RI": 9239,
      "corro": 9240,
      "valuable": 9241,
      "metabolic": 9242,
      "##imeter": 9243,
      "##dy": 9244,
      "AI": 9245,
      "histor": 9246,
      "drag": 9247,
      "bromide": 9248,
      "inhibitory": 9249,
      "##itt": 9250,
      "groundwater": 9251,
      "circulation": 9252,
      "pellets": 9253,
      "voltages": 9254,
      "studying": 9255,
      "maximal": 9256,
      "promin": 9257,
      "symb": 9258,
      "sealed": 9259,
      "rins": 9260,
      "NT": 9261,
      "switch": 9262,
      "lac": 9263,
      "Mat": 9264,
      "##ersion": 9265,
      "enrichment": 9266,
      "##aven": 9267,
      "PDMS": 9268,
      "Wa": 9269,
      "continuum": 9270,
      "∼2": 9271,
      "drastic": 9272,
      "##tity": 9273,
      "H2SO4": 9274,
      "##ophore": 9275,
      "Ser": 9276,
      "tert": 9277,
      "adsorbent": 9278,
      "alcohols": 9279,
      "fibr": 9280,
      "##ounting": 9281,
      "destr": 9282,
      "situations": 9283,
      "hydrogel": 9284,
      "##GG": 9285,
      "dc": 9286,
      "##regn": 9287,
      "##hedra": 9288,
      "offset": 9289,
      "thre": 9290,
      "vapour": 9291,
      "blends": 9292,
      "##atest": 9293,
      "expanded": 9294,
      "##icts": 9295,
      "shrink": 9296,
      "predominantly": 9297,
      "confinement": 9298,
      "valve": 9299,
      "##une": 9300,
      "tuning": 9301,
      "recommended": 9302,
      "##aceous": 9303,
      "exponent": 9304,
      "entries": 9305,
      "categories": 9306,
      "##54": 9307,
      "additives": 9308,
      "silicate": 9309,
      "gauge": 9310,
      "hazard": 9311,
      "behind": 9312,
      "drive": 9313,
      "##ga": 9314,
      "##well": 9315,
      "##66": 9316,
      "##asion": 9317,
      "##vities": 9318,
      "retrie": 9319,
      "##NC": 9320,
      "nanotube": 9321,
      "Lew": 9322,
      "##ommod": 9323,
      "torsion": 9324,
      "μmol": 9325,
      "##illing": 9326,
      "thiol": 9327,
      "BS": 9328,
      "lag": 9329,
      "##we": 9330,
      "collector": 9331,
      "regulated": 9332,
      "##ashed": 9333,
      "##urity": 9334,
      "noticed": 9335,
      "upstream": 9336,
      "guarant": 9337,
      "accessible": 9338,
      "strengths": 9339,
      "##aceutical": 9340,
      "##oltz": 9341,
      "sweep": 9342,
      "Inst": 9343,
      "##tility": 9344,
      "##PT": 9345,
      "dynamical": 9346,
      "synchron": 9347,
      "##dep": 9348,
      "unp": 9349,
      "x2": 9350,
      "anionic": 9351,
      "isolation": 9352,
      "R1": 9353,
      "Poisson": 9354,
      "Ri": 9355,
      "gro": 9356,
      "ultra": 9357,
      "therapeutic": 9358,
      "quenched": 9359,
      "competition": 9360,
      "toughness": 9361,
      "depths": 9362,
      "##ued": 9363,
      "unre": 9364,
      "carefully": 9365,
      "pollution": 9366,
      "accommod": 9367,
      "##zen": 9368,
      "anhydrous": 9369,
      "ha": 9370,
      "flash": 9371,
      "##ionic": 9372,
      "slurry": 9373,
      "##rin": 9374,
      "132": 9375,
      "convenient": 9376,
      "##aim": 9377,
      "expensive": 9378,
      "ultimate": 9379,
      "road": 9380,
      "nucleus": 9381,
      "users": 9382,
      "antioxid": 9383,
      "binder": 9384,
      "coastal": 9385,
      "Intern": 9386,
      "##3O4": 9387,
      "dichloromethane": 9388,
      "superconducting": 9389,
      "couple": 9390,
      "M2": 9391,
      "##78": 9392,
      "Ig": 9393,
      "D2": 9394,
      "reacted": 9395,
      "##arn": 9396,
      "leaves": 9397,
      "irregular": 9398,
      "##cl": 9399,
[...]
